{
  "version": "1.0",
  "truncation": null,
  "padding": null,
  "added_tokens": [
    {
      "id": 0,
      "content": "[SEP]",
      "single_word": false,
      "lstrip": false,
      "rstrip": false,
      "normalized": false,
      "special": true
    },
    {
      "id": 1,
      "content": "[END]",
      "single_word": false,
      "lstrip": false,
      "rstrip": false,
      "normalized": false,
      "special": true
    },
    {
      "id": 2,
      "content": "[PAD]",
      "single_word": false,
      "lstrip": false,
      "rstrip": false,
      "normalized": false,
      "special": true
    },
    {
      "id": 3,
      "content": "[UNK]",
      "single_word": false,
      "lstrip": false,
      "rstrip": false,
      "normalized": false,
      "special": true
    }
  ],
  "normalizer": {
    "type": "BertNormalizer",
    "clean_text": true,
    "handle_chinese_chars": true,
    "strip_accents": true,
    "lowercase": true
  },
  "pre_tokenizer": {
    "type": "ByteLevel",
    "add_prefix_space": false,
    "trim_offsets": true,
    "use_regex": true
  },
  "post_processor": null,
  "decoder": {
    "type": "ByteLevel",
    "add_prefix_space": true,
    "trim_offsets": true,
    "use_regex": true
  },
  "model": {
    "type": "BPE",
    "dropout": null,
    "unk_token": "[UNK]",
    "continuing_subword_prefix": null,
    "end_of_word_suffix": null,
    "fuse_unk": false,
    "byte_fallback": false,
    "ignore_merges": false,
    "vocab": {
      "[SEP]": 0,
      "[END]": 1,
      "[PAD]": 2,
      "[UNK]": 3,
      "!": 4,
      "\"": 5,
      "#": 6,
      "$": 7,
      "%": 8,
      "&": 9,
      "'": 10,
      "(": 11,
      ")": 12,
      "*": 13,
      "+": 14,
      ",": 15,
      "-": 16,
      ".": 17,
      "/": 18,
      "0": 19,
      "1": 20,
      "2": 21,
      "3": 22,
      "4": 23,
      "5": 24,
      "6": 25,
      "7": 26,
      "8": 27,
      "9": 28,
      ":": 29,
      ";": 30,
      "<": 31,
      "=": 32,
      ">": 33,
      "?": 34,
      "@": 35,
      "[": 36,
      "\\": 37,
      "]": 38,
      "^": 39,
      "_": 40,
      "`": 41,
      "a": 42,
      "b": 43,
      "c": 44,
      "d": 45,
      "e": 46,
      "f": 47,
      "g": 48,
      "h": 49,
      "i": 50,
      "j": 51,
      "k": 52,
      "l": 53,
      "m": 54,
      "n": 55,
      "o": 56,
      "p": 57,
      "q": 58,
      "r": 59,
      "s": 60,
      "t": 61,
      "u": 62,
      "v": 63,
      "w": 64,
      "x": 65,
      "y": 66,
      "z": 67,
      "{": 68,
      "|": 69,
      "}": 70,
      "~": 71,
      "¡": 72,
      "¢": 73,
      "£": 74,
      "¤": 75,
      "¥": 76,
      "¦": 77,
      "§": 78,
      "¨": 79,
      "©": 80,
      "ª": 81,
      "«": 82,
      "¬": 83,
      "®": 84,
      "¯": 85,
      "°": 86,
      "±": 87,
      "²": 88,
      "³": 89,
      "´": 90,
      "µ": 91,
      "¶": 92,
      "·": 93,
      "¸": 94,
      "¹": 95,
      "º": 96,
      "»": 97,
      "¼": 98,
      "½": 99,
      "¾": 100,
      "¿": 101,
      "Â": 102,
      "Ã": 103,
      "Ä": 104,
      "Å": 105,
      "Æ": 106,
      "Ç": 107,
      "È": 108,
      "É": 109,
      "Ê": 110,
      "Ë": 111,
      "Î": 112,
      "Ï": 113,
      "Ð": 114,
      "Ñ": 115,
      "Ò": 116,
      "Ó": 117,
      "Õ": 118,
      "Ö": 119,
      "×": 120,
      "Ø": 121,
      "Ù": 122,
      "Ú": 123,
      "Û": 124,
      "Ü": 125,
      "à": 126,
      "á": 127,
      "â": 128,
      "ã": 129,
      "ä": 130,
      "å": 131,
      "æ": 132,
      "ç": 133,
      "è": 134,
      "é": 135,
      "ê": 136,
      "ï": 137,
      "ð": 138,
      "Ġ": 139,
      "Ģ": 140,
      "ģ": 141,
      "Ĥ": 142,
      "ĥ": 143,
      "Ħ": 144,
      "ħ": 145,
      "Ĩ": 146,
      "ĩ": 147,
      "Ī": 148,
      "ī": 149,
      "Ĭ": 150,
      "ĭ": 151,
      "Į": 152,
      "į": 153,
      "İ": 154,
      "ı": 155,
      "Ĳ": 156,
      "ĳ": 157,
      "Ĵ": 158,
      "ĵ": 159,
      "Ķ": 160,
      "ķ": 161,
      "ĸ": 162,
      "Ĺ": 163,
      "ĺ": 164,
      "Ļ": 165,
      "ļ": 166,
      "Ľ": 167,
      "ľ": 168,
      "Ŀ": 169,
      "ŀ": 170,
      "Ł": 171,
      "ł": 172,
      "Ń": 173,
      "Ġt": 174,
      "Ġa": 175,
      "in": 176,
      "he": 177,
      "re": 178,
      "Ġs": 179,
      "on": 180,
      "Ġc": 181,
      "er": 182,
      "Ġthe": 183,
      "Ġo": 184,
      "at": 185,
      "Ġb": 186,
      "an": 187,
      "ou": 188,
      "Ġp": 189,
      "Ġm": 190,
      "is": 191,
      "Ġf": 192,
      "es": 193,
      "Ġw": 194,
      "en": 195,
      "Ġd": 196,
      "or": 197,
      "it": 198,
      "al": 199,
      "Ġan": 200,
      "Ġto": 201,
      "Ġin": 202,
      "ar": 203,
      "le": 204,
      "ing": 205,
      "ed": 206,
      "ic": 207,
      "Ġy": 208,
      "Ġof": 209,
      "Ġand": 210,
      "Ġn": 211,
      "Ġh": 212,
      "Ġyou": 213,
      "Ġis": 214,
      "om": 215,
      "as": 216,
      "Ġl": 217,
      "ow": 218,
      "Ġg": 219,
      "Ġe": 220,
      "ion": 221,
      "il": 222,
      "us": 223,
      "et": 224,
      "ct": 225,
      "Ġre": 226,
      "Ġth": 227,
      "ve": 228,
      "Ġ'": 229,
      "Ġon": 230,
      "ro": 231,
      "ent": 232,
      "Ġare": 233,
      "Ġfor": 234,
      "am": 235,
      "ly": 236,
      "ot": 237,
      "ay": 238,
      "id": 239,
      ".'": 240,
      "st": 241,
      "Ġbe": 242,
      "ig": 243,
      "ut": 244,
      "Ġst": 245,
      "Ġor": 246,
      "Ġ1": 247,
      "ch": 248,
      "ol": 249,
      "ur": 250,
      "Ġit": 251,
      "Ġi": 252,
      "ce": 253,
      "ver": 254,
      "Ġyour": 255,
      "un": 256,
      "od": 257,
      ".',": 258,
      "Ġr": 259,
      "ge": 260,
      "ad": 261,
      "how": 262,
      "ll": 263,
      "ir": 264,
      "im": 265,
      "Ġ(": 266,
      "..": 267,
      "Ġv": 268,
      "Ġdo": 269,
      "Ġcan": 270,
      "Ġ2": 271,
      "Ġas": 272,
      "ation": 273,
      "wh": 274,
      "Ġcon": 275,
      "ith": 276,
      "se": 277,
      "ke": 278,
      "um": 279,
      "ul": 280,
      "ter": 281,
      "Ġwith": 282,
      "Ġch": 283,
      "th": 284,
      "Ġse": 285,
      "ab": 286,
      "ill": 287,
      "oun": 288,
      "Ġwh": 289,
      "are": 290,
      "Ġde": 291,
      "Ġthat": 292,
      "Ġus": 293,
      "Ġfr": 294,
      "pp": 295,
      "qu": 296,
      "Ġhe": 297,
      "what": 298,
      "ac": 299,
      "ate": 300,
      "ers": 301,
      "igh": 302,
      "Ġpro": 303,
      "ies": 304,
      "Ġmo": 305,
      "lo": 306,
      "ain": 307,
      "Ġwe": 308,
      "Ġha": 309,
      "Ġcom": 310,
      "00": 311,
      "Ġne": 312,
      "fe": 313,
      "Ġj": 314,
      "Ġk": 315,
      "ts": 316,
      "her": 317,
      "âĢ": 318,
      "res": 319,
      "'s": 320,
      "Ġat": 321,
      "ive": 322,
      "ess": 323,
      "up": 324,
      "Ġex": 325,
      "est": 326,
      "if": 327,
      "ap": 328,
      "ld": 329,
      "Ġle": 330,
      "os": 331,
      "Ġfrom": 332,
      "Ġper": 333,
      "Ġal": 334,
      "Ġman": 335,
      "Ġnot": 336,
      "Ġsh": 337,
      "Ġun": 338,
      "and": 339,
      "age": 340,
      "ight": 341,
      "Ġhave": 342,
      "Ġtr": 343,
      "ally": 344,
      "...": 345,
      "em": 346,
      "end": 347,
      "our": 348,
      "Ġby": 349,
      "one": 350,
      "ant": 351,
      "iv": 352,
      "ist": 353,
      "red": 354,
      "ine": 355,
      "ame": 356,
      "Ġ...": 357,
      "Ġcal": 358,
      "pe": 359,
      "Ġsu": 360,
      "Ġco": 361,
      "act": 362,
      "Ġac": 363,
      "Ġif": 364,
      "Ġta": 365,
      "ment": 366,
      "Ġ[": 367,
      "el": 368,
      "Ġgo": 369,
      "ast": 370,
      "ick": 371,
      "Ġpl": 372,
      "ide": 373,
      "ity": 374,
      "ome": 375,
      "art": 376,
      "Ġwill": 377,
      "ong": 378,
      "ard": 379,
      "ag": 380,
      "ip": 381,
      "Ġwor": 382,
      "Ġapp": 383,
      "op": 384,
      "Ġ3": 385,
      "ib": 386,
      "Ġall": 387,
      "Ġwhe": 388,
      "ure": 389,
      "Ġthey": 390,
      "ort": 391,
      "ile": 392,
      "Ġme": 393,
      "Ġmany": 394,
      "ans": 395,
      "Ġab": 396,
      "ice": 397,
      "ie": 398,
      "Ġbut": 399,
      "Ġ['": 400,
      "ound": 401,
      "Ġday": 402,
      "Ġdr": 403,
      "Ġpre": 404,
      "ck": 405,
      "Ġgr": 406,
      "Ġma": 407,
      "Ġad": 408,
      "cl": 409,
      "ren": 410,
      "ear": 411,
      "ree": 412,
      "ud": 413,
      "Ġso": 414,
      "iz": 415,
      "ia": 416,
      "out": 417,
      "ust": 418,
      "Ġcont": 419,
      "Ġone": 420,
      "ack": 421,
      "ĠâĢ": 422,
      "pt": 423,
      "Ġdoes": 424,
      "Ġlo": 425,
      "all": 426,
      "ber": 427,
      "able": 428,
      "Ġcomp": 429,
      "Ġthis": 430,
      ".']": 431,
      "ass": 432,
      "Ġfe": 433,
      "Ġ20": 434,
      "Ġaf": 435,
      "ial": 436,
      "Ġhas": 437,
      "we": 438,
      "ich": 439,
      "Ġup": 440,
      "Ġcl": 441,
      "lect": 442,
      "ount": 443,
      "ould": 444,
      "so": 445,
      "Ġget": 446,
      "Ġhow": 447,
      "aus": 448,
      "ions": 449,
      "ne": 450,
      "Ġ\"": 451,
      "ated": 452,
      "Ġsp": 453,
      "gh": 454,
      "Ġ$": 455,
      "ater": 456,
      "own": 457,
      "Ġ4": 458,
      "Ġmu": 459,
      "Ġen": 460,
      "te": 461,
      "ks": 462,
      "Ġam": 463,
      "Ġar": 464,
      "ind": 465,
      "Ġlong": 466,
      "Ġthere": 467,
      "ress": 468,
      "Ġno": 469,
      "Ġli": 470,
      "Ġsc": 471,
      "Ġchan": 472,
      "ary": 473,
      "ore": 474,
      "Ġwhen": 475,
      "ther": 476,
      "ough": 477,
      "Ġmay": 478,
      "Ġpr": 479,
      "Ġbet": 480,
      "Ġacc": 481,
      "Ġtw": 482,
      "Ġmuch": 483,
      "Ġ5": 484,
      "Ġ',": 485,
      "ail": 486,
      "Ġbr": 487,
      "ime": 488,
      "Ġte": 489,
      "ue": 490,
      "Ġdis": 491,
      "Ġph": 492,
      "Ġpo": 493,
      "der": 494,
      "Ġsy": 495,
      "Ġmore": 496,
      "ire": 497,
      "king": 498,
      "Ġmost": 499,
      "per": 500,
      "Ġqu": 501,
      "ase": 502,
      "Ġwhich": 503,
      "ens": 504,
      "ub": 505,
      "Ġafter": 506,
      "Ġyear": 507,
      "Ġout": 508,
      "Ġthan": 509,
      "ph": 510,
      "Ġfl": 511,
      "du": 512,
      "ord": 513,
      "Ġblo": 514,
      "ace": 515,
      "fect": 516,
      "ause": 517,
      "ep": 518,
      "Ġro": 519,
      "av": 520,
      "Ġneed": 521,
      "ories": 522,
      "urn": 523,
      "ach": 524,
      "Ġnew": 525,
      "ult": 526,
      "to": 527,
      "orm": 528,
      "les": 529,
      "ite": 530,
      "ous": 531,
      "Ġnum": 532,
      "Ġser": 533,
      "'t": 534,
      "Ġty": 535,
      "og": 536,
      "Ġsome": 537,
      "Ġany": 538,
      "Ġwas": 539,
      "Ġres": 540,
      "ical": 541,
      "ance": 542,
      "Ġalso": 543,
      "ok": 544,
      "Ġcar": 545,
      "ings": 546,
      "Ġother": 547,
      "very": 548,
      "ign": 549,
      "Ġim": 550,
      "Ġ6": 551,
      "Ġmon": 552,
      "do": 553,
      "Ġcalories": 554,
      "ween": 555,
      "Ġtheir": 556,
      "mon": 557,
      "anc": 558,
      "Ġbetween": 559,
      "Ġtwo": 560,
      "Ġsa": 561,
      "Ġx": 562,
      "led": 563,
      "Ġtake": 564,
      ").": 565,
      "Ġabout": 566,
      "gn": 567,
      "Ġwater": 568,
      "Ġche": 569,
      "Ġuse": 570,
      "Ġrec": 571,
      "ry": 572,
      "can": 573,
      "pl": 574,
      "Ġpregn": 575,
      "Ġgood": 576,
      "Ġcol": 577,
      "ak": 578,
      "Ġu": 579,
      "Ġpe": 580,
      "bo": 581,
      "ade": 582,
      "Ġoff": 583,
      "ates": 584,
      "Ġinc": 585,
      "Ġused": 586,
      "Ġwee": 587,
      "whe": 588,
      "Ġfo": 589,
      "Ġshould": 590,
      "ix": 591,
      "reat": 592,
      "Ġtime": 593,
      "âĢĿ": 594,
      "ations": 595,
      "Ġbo": 596,
      "Ġmin": 597,
      "Ġwho": 598,
      "Ġchange": 599,
      "ason": 600,
      "Ġname": 601,
      "ish": 602,
      "ra": 603,
      "feren": 604,
      "ĠâĢľ": 605,
      "Ġmar": 606,
      "ition": 607,
      "ction": 608,
      "als": 609,
      "Ġ201": 610,
      "Ġhour": 611,
      "Ġdif": 612,
      "Ġdays": 613,
      "Ġform": 614,
      "Ġmy": 615,
      "clud": 616,
      "Ġem": 617,
      "Ġthen": 618,
      "Ġnumber": 619,
      "Ġz": 620,
      "port": 621,
      "Ġover": 622,
      "Ġbec": 623,
      "Ġbl": 624,
      "gs": 625,
      "Ġlike": 626,
      "amp": 627,
      "000": 628,
      "ose": 629,
      "ually": 630,
      "Ġkn": 631,
      "Ġblood": 632,
      "Ġsm": 633,
      "ors": 634,
      "Ġgen": 635,
      "Ġspe": 636,
      "Ġset": 637,
      "con": 638,
      "Ġ10": 639,
      "ents": 640,
      "Ġsame": 641,
      "ft": 642,
      "Ġ-": 643,
      "ell": 644,
      "Ġcons": 645,
      "oth": 646,
      "Ġonly": 647,
      "ams": 648,
      "Ġev": 649,
      "Ġequ": 650,
      "vel": 651,
      "ian": 652,
      "Ġinclud": 653,
      "',": 654,
      "ays": 655,
      "Ġadd": 656,
      "ri": 657,
      "hes": 658,
      "Ġear": 659,
      "Ġfir": 660,
      "lic": 661,
      "Ġdi": 662,
      "Ġ8": 663,
      "Ġ7": 664,
      "Ġdifferen": 665,
      "Ġwhile": 666,
      "cent": 667,
      "20": 668,
      "Ġcost": 669,
      "Ġmonth": 670,
      "ild": 671,
      "bs": 672,
      "Ġact": 673,
      "Ġpass": 674,
      "Ġwork": 675,
      "ons": 676,
      "Ġmake": 677,
      "ible": 678,
      "Ġind": 679,
      "orn": 680,
      "low": 681,
      "ds": 682,
      "ence": 683,
      "Ġfirst": 684,
      "Ġinto": 685,
      "its": 686,
      "Ġpers": 687,
      "ang": 688,
      "Ġcr": 689,
      "Ġke": 690,
      "Ġthem": 691,
      "ps": 692,
      "aw": 693,
      "Ġmed": 694,
      "fore": 695,
      "ert": 696,
      "Ġdown": 697,
      "Ġprodu": 698,
      "ory": 699,
      "Ġseason": 700,
      "ific": 701,
      "'re": 702,
      "Ġop": 703,
      "ular": 704,
      "Ġpart": 705,
      "Ġsk": 706,
      "vers": 707,
      "li": 708,
      "Ġhigh": 709,
      "ten": 710,
      "Ġits": 711,
      "Ġtrans": 712,
      "old": 713,
      "Ġwhat": 714,
      "Ġair": 715,
      "Ġback": 716,
      "erm": 717,
      "Ġselect": 718,
      "Ġmade": 719,
      "ric": 720,
      "Ġrequ": 721,
      "Ġthree": 722,
      "Ġperson": 723,
      "Ġag": 724,
      "ating": 725,
      "),": 726,
      "inal": 727,
      "io": 728,
      "Ġ9": 729,
      "Ġgener": 730,
      "int": 731,
      "Ġfree": 732,
      "oms": 733,
      "Ġ=": 734,
      "Ġyears": 735,
      "verage": 736,
      "ces": 737,
      "Ġsign": 738,
      "ium": 739,
      "vice": 740,
      "gr": 741,
      "uring": 742,
      "ink": 743,
      "Ġplay": 744,
      "day": 745,
      "Ġinst": 746,
      "Ġ12": 747,
      "Ġreg": 748,
      "Ġtyp": 749,
      "Ġpercent": 750,
      "Ġmean": 751,
      "alth": 752,
      "Ġinter": 753,
      "cess": 754,
      "Ġdep": 755,
      "ins": 756,
      "Ġclick": 757,
      "Ġthr": 758,
      "Ġopen": 759,
      "Ġbu": 760,
      "Ġval": 761,
      "Ġhours": 762,
      "Ġpay": 763,
      "iss": 764,
      "ting": 765,
      "Ġjust": 766,
      "Ġbeen": 767,
      "Ġav": 768,
      "ody": 769,
      "ual": 770,
      "Ġaccount": 771,
      "Ġcommon": 772,
      "Ġ19": 773,
      "Ġlow": 774,
      "Ġdes": 775,
      "phone": 776,
      "ople": 777,
      "Ġve": 778,
      "Ġeach": 779,
      "Ġgl": 780,
      "imes": 781,
      "Ġtax": 782,
      "ize": 783,
      "Ġpeople": 784,
      "co": 785,
      "Ġaverage": 786,
      "the": 787,
      "Ġrel": 788,
      "fl": 789,
      "ows": 790,
      "cur": 791,
      "Ġcontain": 792,
      "ats": 793,
      "Ġchar": 794,
      "Ġunder": 795,
      "iod": 796,
      "ased": 797,
      "fer": 798,
      "mo": 799,
      "Ġbefore": 800,
      "ty": 801,
      "Ġpress": 802,
      "Ġfol": 803,
      "Ġshe": 804,
      "Ġthese": 805,
      "Ġmet": 806,
      "ys": 807,
      "Ġusually": 808,
      "get": 809,
      "Ġjo": 810,
      "Ġweeks": 811,
      "Ġsym": 812,
      "Ġent": 813,
      "oss": 814,
      "ton": 815,
      "Ġevery": 816,
      "Ġcup": 817,
      "Ġperiod": 818,
      "Ġhealth": 819,
      "Ġcard": 820,
      "Ġvis": 821,
      "Ġhel": 822,
      "ĠâĢĵ": 823,
      "Ġnet": 824,
      "ancy": 825,
      "Ġbre": 826,
      "form": 827,
      "Ġduring": 828,
      "Ġburn": 829,
      "Ġexp": 830,
      "Ġcause": 831,
      "Ġshow": 832,
      "Ġef": 833,
      "Ġpar": 834,
      "Ġfood": 835,
      "Ġold": 836,
      "Ġiphone": 837,
      "stem": 838,
      "reen": 839,
      "ata": 840,
      "Ġsim": 841,
      "Ġcell": 842,
      "Ġbody": 843,
      "ode": 844,
      "Ġsal": 845,
      "Ġcount": 846,
      "where": 847,
      "Ġsw": 848,
      "ited": 849,
      "cial": 850,
      "Ġcur": 851,
      "ise": 852,
      "50": 853,
      "Ġstart": 854,
      "ci": 855,
      "air": 856,
      "ically": 857,
      "ger": 858,
      "Ġret": 859,
      "Ġins": 860,
      "xt": 861,
      "Ġfil": 862,
      "Ġbecause": 863,
      "ments": 864,
      "Ġloc": 865,
      "Ġpregnancy": 866,
      "ect": 867,
      "Ġmus": 868,
      "Ġeng": 869,
      "ired": 870,
      "ange": 871,
      "ef": 872,
      "Ġsuch": 873,
      "Ġsystem": 874,
      "Ġbab": 875,
      "Ġwant": 876,
      "Ġthrough": 877,
      "Ġstill": 878,
      "Ġdon": 879,
      "ath": 880,
      "Ġfour": 881,
      "Ġlit": 882,
      "Ġpregnant": 883,
      "Ġfun": 884,
      "Ġphot": 885,
      "Ġsub": 886,
      "ics": 887,
      "sw": 888,
      "cul": 889,
      "gar": 890,
      "Ġdef": 891,
      "ational": 892,
      "Ġpain": 893,
      "rit": 894,
      "tle": 895,
      "ble": 896,
      "click": 897,
      "Ġweight": 898,
      "Ġmonths": 899,
      "Ġfind": 900,
      "ms": 901,
      "iew": 902,
      "Ġed": 903,
      "nect": 904,
      "ever": 905,
      "Ġmen": 906,
      "Ġtest": 907,
      "ness": 908,
      "Ġelect": 909,
      "Ġstate": 910,
      "Ġboth": 911,
      "Ġstand": 912,
      "ature": 913,
      "cle": 914,
      "Ġcheck": 915,
      "ced": 916,
      "Ġstr": 917,
      "ily": 918,
      "Ġbest": 919,
      "Ġcalled": 920,
      "kes": 921,
      ".\"": 922,
      "land": 923,
      "com": 924,
      "ving": 925,
      "pro": 926,
      "Ġpres": 927,
      "Ġaround": 928,
      "Ġsafe": 929,
      "Ġmil": 930,
      "ash": 931,
      "ull": 932,
      "Ġhowever": 933,
      "cr": 934,
      "Ġsupp": 935,
      "Ġsympt": 936,
      "af": 937,
      "ank": 938,
      "Ġlevel": 939,
      "Ġmeans": 940,
      "Ġlast": 941,
      "Ġeffect": 942,
      "atch": 943,
      "ative": 944,
      "Ġeven": 945,
      "po": 946,
      "Ġsee": 947,
      "Ġtap": 948,
      "Ġright": 949,
      "Ġsur": 950,
      "ug": 951,
      "Ġcho": 952,
      "Ġprote": 953,
      "Ġend": 954,
      "ted": 955,
      "Ġfact": 956,
      "ines": 957,
      "iness": 958,
      "ets": 959,
      "ices": 960,
      "wn": 961,
      "omet": 962,
      "Ġgrams": 963,
      "gan": 964,
      "Ġdata": 965,
      "ages": 966,
      "az": 967,
      "Ġwhere": 968,
      "erg": 969,
      "Ġred": 970,
      "Ġfile": 971,
      "Ġage": 972,
      "Ġleg": 973,
      "ake": 974,
      "Ġrun": 975,
      "ident": 976,
      "ious": 977,
      "tr": 978,
      "yd": 979,
      "eric": 980,
      "Ġher": 981,
      "Ġhis": 982,
      "ars": 983,
      "Ġfat": 984,
      "Ġsymptoms": 985,
      "ility": 986,
      "ones": 987,
      "cy": 988,
      "Ġoften": 989,
      "Ġusing": 990,
      "ied": 991,
      "line": 992,
      "Ġwell": 993,
      "load": 994,
      "Ġhelp": 995,
      "Ġprov": 996,
      "Ġmain": 997,
      "Ġpow": 998,
      "Ġinfect": 999,
      "ron": 1000,
      "Ġcre": 1001,
      "Ġansw": 1002,
      "Ġ2019": 1003,
      "tings": 1004,
      "Ġtype": 1005,
      "ants": 1006,
      "Ġminut": 1007,
      "Ġvery": 1008,
      "ames": 1009,
      "Ġgu": 1010,
      "Ġ100": 1011,
      "ject": 1012,
      "Ġconnect": 1013,
      "Ġsmall": 1014,
      "Ġcent": 1015,
      "Ġwom": 1016,
      "go": 1017,
      "Ġ>": 1018,
      "Ġwind": 1019,
      "ots": 1020,
      "when": 1021,
      "Ġlar": 1022,
      "Ġcontro": 1023,
      "Ġben": 1024,
      "Ġweek": 1025,
      "Ġbir": 1026,
      "Ġep": 1027,
      "Ġprof": 1028,
      "ures": 1029,
      "ning": 1030,
      "Ġfound": 1031,
      "cho": 1032,
      "Ġnow": 1033,
      "Ġchild": 1034,
      "Ġsize": 1035,
      "Ġel": 1036,
      "ption": 1037,
      "Ġstud": 1038,
      "Ġdifferent": 1039,
      "rent": 1040,
      "ork": 1041,
      "Ġhome": 1042,
      "Ġpressure": 1043,
      "Ġproduct": 1044,
      "hing": 1045,
      "ale": 1046,
      "ah": 1047,
      "bers": 1048,
      "ss": 1049,
      "Ġanswer": 1050,
      "Ġrep": 1051,
      "Ġsto": 1052,
      "Ġdist": 1053,
      "ouse": 1054,
      "Ġdiv": 1055,
      "ense": 1056,
      "Ġavail": 1057,
      "Ġcle": 1058,
      "Ġmem": 1059,
      "Ġsettings": 1060,
      "hip": 1061,
      "Ġameric": 1062,
      "oup": 1063,
      "Ġnorm": 1064,
      "arm": 1065,
      "ives": 1066,
      "Ġclo": 1067,
      "Ġmod": 1068,
      "Ġic": 1069,
      "Ġside": 1070,
      "Ġbus": 1071,
      "Ġtop": 1072,
      "Ġmust": 1073,
      "ved": 1074,
      "ful": 1075,
      "Ġwould": 1076,
      "Ġoil": 1077,
      "br": 1078,
      "Ġskin": 1079,
      "Ġlight": 1080,
      "Ġfollow": 1081,
      "olog": 1082,
      "Ġ18": 1083,
      "Ġwere": 1084,
      "Ġwithin": 1085,
      "other": 1086,
      "any": 1087,
      ")',": 1088,
      "Ġavailable": 1089,
      "oney": 1090,
      "10": 1091,
      "Ġtreat": 1092,
      "Ġlic": 1093,
      "Ġknown": 1094,
      "Ġcomm": 1095,
      "ends": 1096,
      "Ġcert": 1097,
      "Ġdifference": 1098,
      "Ġsqu": 1099,
      "Ġown": 1100,
      "Ġworld": 1101,
      "Ġmult": 1102,
      "ave": 1103,
      "gen": 1104,
      "hed": 1105,
      "Ġapple": 1106,
      "Ġbaby": 1107,
      "ict": 1108,
      "less": 1109,
      "of": 1110,
      "atur": 1111,
      "Ġdet": 1112,
      "Ġvar": 1113,
      "Ġmill": 1114,
      "Ġheart": 1115,
      "ids": 1116,
      "Ġtem": 1117,
      "ges": 1118,
      "'ll": 1119,
      "Ġour": 1120,
      "ls": 1121,
      "ye": 1122,
      "Ġant": 1123,
      "Ġcomple": 1124,
      "Ġtimes": 1125,
      "iving": 1126,
      "ately": 1127,
      "Ġyes": 1128,
      "ney": 1129,
      "ases": 1130,
      "Ġref": 1131,
      "who": 1132,
      "Ġdogs": 1133,
      "tal": 1134,
      "Ġstates": 1135,
      "ark": 1136,
      "why": 1137,
      "Ġob": 1138,
      "Ġcurrent": 1139,
      "Ġbro": 1140,
      "Ġ0": 1141,
      "Ġwithout": 1142,
      "Ġchr": 1143,
      "Ġeas": 1144,
      "Ġknow": 1145,
      "Ġhead": 1146,
      "Ġallow": 1147,
      "atter": 1148,
      "Ġvide": 1149,
      "ax": 1150,
      "ints": 1151,
      "acter": 1152,
      "Ġlist": 1153,
      "Ġincre": 1154,
      "Ġinclude": 1155,
      "Ġrece": 1156,
      "Ġeat": 1157,
      "Ġ15": 1158,
      "Ġdec": 1159,
      "Ġappro": 1160,
      "plo": 1161,
      "ral": 1162,
      "Ġtv": 1163,
      "Ġway": 1164,
      "uc": 1165,
      "Ġ30": 1166,
      "Ġmedic": 1167,
      "outh": 1168,
      "Ġint": 1169,
      "Ġ&": 1170,
      "Ġext": 1171,
      "Ġsn": 1172,
      "Ġsl": 1173,
      "uct": 1174,
      "tap": 1175,
      "Ġcaus": 1176,
      "Ġsugar": 1177,
      "me": 1178,
      "uter": 1179,
      "Ġdire": 1180,
      "ounds": 1181,
      "Ġhair": 1182,
      "ities": 1183,
      "gin": 1184,
      "ven": 1185,
      "ĠâĢĶ": 1186,
      "Ġleast": 1187,
      "Ġ2020": 1188,
      "Ġblock": 1189,
      "box": 1190,
      "be": 1191,
      "Ġexce": 1192,
      "Ġfull": 1193,
      "Ġaut": 1194,
      "Ġhum": 1195,
      "Ġsin": 1196,
      "ient": 1197,
      "pect": 1198,
      "Ġsomeone": 1199,
      "Ġdevice": 1200,
      "ator": 1201,
      "Ġpot": 1202,
      "Ġoc": 1203,
      "Ġgame": 1204,
      "Ġminutes": 1205,
      "Ġcap": 1206,
      "Ġbeing": 1207,
      "Ġless": 1208,
      "Ġprocess": 1209,
      "xim": 1210,
      "Ġeg": 1211,
      "ording": 1212,
      "lf": 1213,
      "Ġaw": 1214,
      "Ġdownload": 1215,
      "ves": 1216,
      "Ġ16": 1217,
      "Ġrem": 1218,
      "word": 1219,
      "Ġsomet": 1220,
      "Ġbirth": 1221,
      "app": 1222,
      "Ġinv": 1223,
      "select": 1224,
      "Ġsing": 1225,
      "Ġsol": 1226,
      "Ġvit": 1227,
      "Ġmoney": 1228,
      "Ġsecon": 1229,
      "Ġwhite": 1230,
      "Ġamount": 1231,
      "ond": 1232,
      "Ġcond": 1233,
      "Ġgreat": 1234,
      "Ġequal": 1235,
      "Ġstandard": 1236,
      "Ġkeep": 1237,
      "uf": 1238,
      "ized": 1239,
      "Ġfeel": 1240,
      "Ġreal": 1241,
      "Ġur": 1242,
      "Ġepis": 1243,
      "Ġmultip": 1244,
      "arch": 1245,
      "Ġface": 1246,
      "Ġspec": 1247,
      "Ġbenef": 1248,
      "Ġver": 1249,
      "cer": 1250,
      "Ġincluding": 1251,
      "Ġqual": 1252,
      "velo": 1253,
      "pr": 1254,
      "Ġleft": 1255,
      "Ġexper": 1256,
      "Ġcred": 1257,
      "Ġpur": 1258,
      "Ġbot": 1259,
      "Ġexamp": 1260,
      "curity": 1261,
      "ience": 1262,
      "Ġflu": 1263,
      "Ġaccording": 1264,
      "ters": 1265,
      "Ġpol": 1266,
      "Ġrest": 1267,
      "does": 1268,
      "Ġnon": 1269,
      "idered": 1270,
      "amin": 1271,
      "Ġconsidered": 1272,
      "Ġphotos": 1273,
      "Ġass": 1274,
      "Ġbusiness": 1275,
      "Ġfew": 1276,
      "Ġoun": 1277,
      "omm": 1278,
      "ending": 1279,
      "Ġview": 1280,
      "Ġhand": 1281,
      "Ġcy": 1282,
      "Ġbas": 1283,
      "Ġtransfer": 1284,
      "Ġunited": 1285,
      "Ġtab": 1286,
      "Ġwomen": 1287,
      "Ġpower": 1288,
      "Ġcalcul": 1289,
      "Ġterm": 1290,
      "Ġclass": 1291,
      "Ġonce": 1292,
      "Ġvol": 1293,
      "Ġstre": 1294,
      "Ġatt": 1295,
      "vices": 1296,
      "Ġsecurity": 1297,
      "Ġorig": 1298,
      "Ġtoo": 1299,
      "Ġnormal": 1300,
      "Ġproper": 1301,
      "Ġpop": 1302,
      "ute": 1303,
      "ital": 1304,
      "Ġbig": 1305,
      "Ġposs": 1306,
      "Ġsquare": 1307,
      "Ġann": 1308,
      "Ġdirect": 1309,
      "Ġrele": 1310,
      "els": 1311,
      "Ġrate": 1312,
      "Ġ11": 1313,
      "ider": 1314,
      "Ġdate": 1315,
      "Ġcells": 1316,
      "Ġtypes": 1317,
      "Ġplan": 1318,
      "Ġ14": 1319,
      "Ġfive": 1320,
      "Ġfam": 1321,
      "Ġpassword": 1322,
      "eding": 1323,
      "Ġgenerally": 1324,
      "Ġsix": 1325,
      "ood": 1326,
      "Ġscreen": 1327,
      "Ġris": 1328,
      "Ġservice": 1329,
      "Ġshort": 1330,
      "Ġlife": 1331,
      "12": 1332,
      "Ġdevelo": 1333,
      "Ġrecomm": 1334,
      "ries": 1335,
      "Ġcour": 1336,
      "Ġfin": 1337,
      "Ġir": 1338,
      "Ġlive": 1339,
      "Ġintern": 1340,
      "ivers": 1341,
      "Ġonline": 1342,
      "ues": 1343,
      "Ġcould": 1344,
      "Ġest": 1345,
      "ier": 1346,
      "Ġfeet": 1347,
      "Ġes": 1348,
      "Ġpost": 1349,
      "Ġuk": 1350,
      "Ġsun": 1351,
      "Ġmeas": 1352,
      "iver": 1353,
      "Ġpercentage": 1354,
      "Ġhouse": 1355,
      "Ġimport": 1356,
      "Ġju": 1357,
      "Ġtotal": 1358,
      "ution": 1359,
      "ults": 1360,
      "Ġsocial": 1361,
      "Ġhig": 1362,
      "Ġseries": 1363,
      "Ġphone": 1364,
      "chool": 1365,
      "Ġcome": 1366,
      "ield": 1367,
      "Ġunt": 1368,
      "Ġcor": 1369,
      "Ġnut": 1370,
      "Ġappear": 1371,
      "str": 1372,
      "Ġanim": 1373,
      "Ġlaw": 1374,
      "book": 1375,
      "Ġenter": 1376,
      "Ġmeaning": 1377,
      "ides": 1378,
      "man": 1379,
      "Ġtra": 1380,
      "Ġsince": 1381,
      "Ġcontrol": 1382,
      "Ġ25": 1383,
      "gether": 1384,
      "Ġcompany": 1385,
      "Ġconf": 1386,
      "Ġbal": 1387,
      "Ġmark": 1388,
      "Ġpoints": 1389,
      "Ġ24": 1390,
      "Ġfri": 1391,
      "tern": 1392,
      "Ġwatch": 1393,
      "Ġbad": 1394,
      "Ġreturn": 1395,
      "Ġwon": 1396,
      "ublic": 1397,
      "eng": 1398,
      "vent": 1399,
      "Ġschool": 1400,
      "na": 1401,
      "Ġvideo": 1402,
      "Ġincome": 1403,
      "Ġdig": 1404,
      "Ġvalue": 1405,
      "Ġgeneral": 1406,
      "Ġcontains": 1407,
      "Ġbank": 1408,
      "gest": 1409,
      "Ġtypically": 1410,
      "Ġtogether": 1411,
      "Ġsecond": 1412,
      "Ġbar": 1413,
      "Ġrequire": 1414,
      "Ġhal": 1415,
      "ards": 1416,
      "read": 1417,
      "Ġdog": 1418,
      "Ġemail": 1419,
      "30": 1420,
      "Ġwal": 1421,
      "Ġsimp": 1422,
      "Ġtemper": 1423,
      "Ġapplic": 1424,
      "Ġswe": 1425,
      "ways": 1426,
      "Ġho": 1427,
      "Ġnext": 1428,
      "hic": 1429,
      "Ġwindows": 1430,
      "Ġmight": 1431,
      "ram": 1432,
      "Ġcomputer": 1433,
      "Ġvir": 1434,
      "Ġrequired": 1435,
      "Ġuntil": 1436,
      "Ġturn": 1437,
      "Ġdefin": 1438,
      "Ġid": 1439,
      "action": 1440,
      "Ġarea": 1441,
      "Ġ.": 1442,
      "Ġdevelop": 1443,
      "Ġmic": 1444,
      "Ġblack": 1445,
      "Ġbutton": 1446,
      "Ġcolor": 1447,
      "Ġdeg": 1448,
      "ergy": 1449,
      "ner": 1450,
      "amm": 1451,
      "rop": 1452,
      "ains": 1453,
      "ills": 1454,
      "Ġcontr": 1455,
      "Ġearly": 1456,
      "Ġoffic": 1457,
      "ex": 1458,
      "Ġemplo": 1459,
      "ube": 1460,
      "ross": 1461,
      "Ġproducts": 1462,
      "Ġsle": 1463,
      "Ġamerican": 1464,
      "lish": 1465,
      "Ġmac": 1466,
      "Ġthose": 1467,
      "Ġlittle": 1468,
      "Ġglut": 1469,
      "60": 1470,
      "ency": 1471,
      "Ġbecome": 1472,
      "ina": 1473,
      "Ġrepl": 1474,
      "Ġinfection": 1475,
      "Ġplace": 1476,
      "Ġwar": 1477,
      "Ġlicense": 1478,
      "Ġhard": 1479,
      "ional": 1480,
      "ox": 1481,
      "Ġ200": 1482,
      "Ġlead": 1483,
      "ern": 1484,
      "Ġagain": 1485,
      "ified": 1486,
      "Ġdise": 1487,
      "Ġchoose": 1488,
      "Ġ50": 1489,
      "Ġthough": 1490,
      "uck": 1491,
      "Ġacid": 1492,
      "Ġexample": 1493,
      "Ġcook": 1494,
      "ety": 1495,
      "Ġfoot": 1496,
      "Ġkey": 1497,
      "Ġcredit": 1498,
      "Ġrecommend": 1499,
      "Ġcare": 1500,
      "Ġdam": 1501,
      "Ġcups": 1502,
      "Ġbetter": 1503,
      "Ġword": 1504,
      "work": 1505,
      "sh": 1506,
      "ists": 1507,
      "Ġlim": 1508,
      "Ġmess": 1509,
      "Ġlab": 1510,
      "Ġtakes": 1511,
      "Ġorder": 1512,
      "Ġvisa": 1513,
      "Ġgluten": 1514,
      "Ġfast": 1515,
      "Ġmenu": 1516,
      "Ġ40": 1517,
      "aid": 1518,
      "med": 1519,
      "Ġmarri": 1520,
      "Ġgrow": 1521,
      "Ġhol": 1522,
      "though": 1523,
      "Ġinform": 1524,
      "Ġcanad": 1525,
      "Ġdrive": 1526,
      "Ġgroup": 1527,
      "rap": 1528,
      "Ġcit": 1529,
      "Ġprotein": 1530,
      "Ġps": 1531,
      "Ġwa": 1532,
      "Ġhapp": 1533,
      "Ġdrin": 1534,
      "Ġmove": 1535,
      "Ġdry": 1536,
      "Ġhad": 1537,
      "Ġxbox": 1538,
      "Ġrange": 1539,
      "Ġdrink": 1540,
      "ival": 1541,
      "Ġeffects": 1542,
      "ump": 1543,
      "Ġpage": 1544,
      "Ġremo": 1545,
      "eral": 1546,
      "Ġnatur": 1547,
      "Ġsho": 1548,
      "Ġanother": 1549,
      "Ġbel": 1550,
      "Ġline": 1551,
      "']": 1552,
      "ĠÂ": 1553,
      "ane": 1554,
      "Ġstar": 1555,
      "Ġlonger": 1556,
      "ior": 1557,
      "oud": 1558,
      "Ġmaj": 1559,
      "fic": 1560,
      "ither": 1561,
      "itive": 1562,
      "Ġpack": 1563,
      "Ġproble": 1564,
      "orts": 1565,
      "Ġlarge": 1566,
      "âĢĶ": 1567,
      "Ġinches": 1568,
      "Ġcomplete": 1569,
      "Ġread": 1570,
      "Ġresult": 1571,
      "ym": 1572,
      "Ġput": 1573,
      "ism": 1574,
      "Ġalthough": 1575,
      "Ġnational": 1576,
      "Ġtravel": 1577,
      "âĢĵ": 1578,
      "ather": 1579,
      "Ġlower": 1580,
      "ula": 1581,
      "Ġgames": 1582,
      "Ġmilk": 1583,
      "new": 1584,
      "ume": 1585,
      "Ġlet": 1586,
      "Ġfiles": 1587,
      "Ġoccur": 1588,
      "Ġhold": 1589,
      "cum": 1590,
      "Ġpat": 1591,
      "Ġconver": 1592,
      "de": 1593,
      "Ġprofile": 1594,
      "Ġworth": 1595,
      "ights": 1596,
      "ify": 1597,
      "che": 1598,
      "Ġsleep": 1599,
      "Ġorgan": 1600,
      "Ġnumbers": 1601,
      "Ġnor": 1602,
      "Ġ/": 1603,
      "Ġcall": 1604,
      "Ġele": 1605,
      "Ġrisk": 1606,
      "Ġchick": 1607,
      "Ġste": 1608,
      "Ġfed": 1609,
      "Ġkil": 1610,
      "Ġlegal": 1611,
      "au": 1612,
      "Ġhot": 1613,
      "Ġpossible": 1614,
      "ipt": 1615,
      "Ġrecord": 1616,
      "Ġounces": 1617,
      "25": 1618,
      "angu": 1619,
      "Ġhyd": 1620,
      "eto": 1621,
      "flix": 1622,
      "Ġmajor": 1623,
      "Ġaddress": 1624,
      "yl": 1625,
      "Ġcomb": 1626,
      "Ġ13": 1627,
      "Ġredu": 1628,
      "ns": 1629,
      "Ġwords": 1630,
      "Ġvari": 1631,
      "Ġdue": 1632,
      "Ġbox": 1633,
      "uary": 1634,
      "Ġsupport": 1635,
      "une": 1636,
      "Ġalways": 1637,
      "Ġprogr": 1638,
      "xic": 1639,
      "Ġring": 1640,
      "iting": 1641,
      "Ġbrand": 1642,
      "Ġcust": 1643,
      "Ġenergy": 1644,
      "not": 1645,
      "Ġbased": 1646,
      "Ġnetflix": 1647,
      "hol": 1648,
      "vis": 1649,
      "Ġsup": 1650,
      "Ġlevels": 1651,
      "Ġsay": 1652,
      "Ġmillion": 1653,
      "Ġvehic": 1654,
      "ik": 1655,
      "Ġopt": 1656,
      "oid": 1657,
      "Ġbott": 1658,
      "Ġpos": 1659,
      "ulation": 1660,
      "Ġdesign": 1661,
      "Ġbenefits": 1662,
      "bile": 1663,
      "ipp": 1664,
      "ients": 1665,
      "Ġdisease": 1666,
      "vern": 1667,
      "Ġfunction": 1668,
      "Ġhalf": 1669,
      "ken": 1670,
      "Ġaffect": 1671,
      "let": 1672,
      "Ġpassport": 1673,
      "open": 1674,
      "py": 1675,
      "ctor": 1676,
      "Ġinformation": 1677,
      "play": 1678,
      "ires": 1679,
      "ounts": 1680,
      "lling": 1681,
      "Ġtemperature": 1682,
      "Ġbuy": 1683,
      "ison": 1684,
      "Ġwin": 1685,
      "ips": 1686,
      "rest": 1687,
      "Ġaccess": 1688,
      "Ġinte": 1689,
      "tain": 1690,
      "Ġgive": 1691,
      "min": 1692,
      "Ġwrit": 1693,
      "Ġlangu": 1694,
      "odes": 1695,
      "col": 1696,
      "Ġplus": 1697,
      "Ġable": 1698,
      "mit": 1699,
      "Ġsingle": 1700,
      "Ġdepending": 1701,
      "Ġsour": 1702,
      "Ġfamily": 1703,
      "Ġnight": 1704,
      "Ġble": 1705,
      "ged": 1706,
      "Ġapply": 1707,
      "cre": 1708,
      "iven": 1709,
      "Ġinf": 1710,
      "Ġenglish": 1711,
      "Ġsouth": 1712,
      "ods": 1713,
      "Ġhy": 1714,
      "itch": 1715,
      "Ġaust": 1716,
      "pper": 1717,
      "Ġbatter": 1718,
      "Ġfacebook": 1719,
      "Ġban": 1720,
      "aily": 1721,
      "Ġcountry": 1722,
      "Ġepisode": 1723,
      "ung": 1724,
      "Ġloss": 1725,
      "Ġport": 1726,
      "itional": 1727,
      "Ġoper": 1728,
      "Ġhere": 1729,
      "Ġresp": 1730,
      "ration": 1731,
      "Ġov": 1732,
      "Ġunit": 1733,
      "Ġyout": 1734,
      "Ġarr": 1735,
      "Ġhigher": 1736,
      "agn": 1737,
      "Ġq": 1738,
      "Ġking": 1739,
      "ination": 1740,
      "eds": 1741,
      "Ġoption": 1742,
      "Ġapproxim": 1743,
      "mber": 1744,
      "Ġpast": 1745,
      "omes": 1746,
      "atic": 1747,
      "ule": 1748,
      "Ġdaily": 1749,
      "dom": 1750,
      "Ġpublic": 1751,
      "und": 1752,
      "free": 1753,
      "Ġfinal": 1754,
      "cept": 1755,
      "ability": 1756,
      "eth": 1757,
      "aking": 1758,
      "Ġox": 1759,
      "Ġcontact": 1760,
      "Ġtrain": 1761,
      "arr": 1762,
      "Ġmole": 1763,
      "ato": 1764,
      "Ġvers": 1765,
      "Ġsum": 1766,
      "self": 1767,
      "Ġeither": 1768,
      "chn": 1769,
      "fort": 1770,
      "roid": 1771,
      "Ġchem": 1772,
      "Ġkid": 1773,
      "Ġphys": 1774,
      "Ġtable": 1775,
      "oll": 1776,
      "Ġgovern": 1777,
      "view": 1778,
      "Ġdele": 1779,
      "Ġsave": 1780,
      "ured": 1781,
      "sc": 1782,
      "Ġgreen": 1783,
      "att": 1784,
      "eter": 1785,
      "Ġprem": 1786,
      "ared": 1787,
      "Ġmass": 1788,
      "Ġregular": 1789,
      "Ġeu": 1790,
      "Ġallowed": 1791,
      "Ġbi": 1792,
      "by": 1793,
      "Ġchrist": 1794,
      "ology": 1795,
      "Ġfollowing": 1796,
      "Ġmid": 1797,
      "Ġformula": 1798,
      "99": 1799,
      "Ġexperience": 1800,
      "Ġfib": 1801,
      "Ġcitiz": 1802,
      "oking": 1803,
      "Ġcharacter": 1804,
      "'ve": 1805,
      "omach": 1806,
      "ster": 1807,
      "Ġmot": 1808,
      "uit": 1809,
      "oc": 1810,
      "Ġsyn": 1811,
      "Ġchicken": 1812,
      "Ġpersonal": 1813,
      "Ġearn": 1814,
      "Ġcustom": 1815,
      "Ġhaving": 1816,
      "ai": 1817,
      "Ġpartic": 1818,
      "Ġequals": 1819,
      "Ġfire": 1820,
      "Ġresults": 1821,
      "Ġengine": 1822,
      "Ġpoint": 1823,
      "Ġapproximately": 1824,
      "Ġhealthy": 1825,
      "Ġfit": 1826,
      "Ġprice": 1827,
      "ball": 1828,
      "ogle": 1829,
      "ails": 1830,
      "ential": 1831,
      "Ġsays": 1832,
      "Ġlook": 1833,
      "Ġexpect": 1834,
      ".\",": 1835,
      "Ġce": 1836,
      "Ġtick": 1837,
      "Ġbalance": 1838,
      "Ġmiss": 1839,
      "Ġpc": 1840,
      "Ġminim": 1841,
      "ache": 1842,
      "Ġrenew": 1843,
      "Ġident": 1844,
      "Ġcity": 1845,
      "actions": 1846,
      "top": 1847,
      "Ġcontin": 1848,
      "Ġrelated": 1849,
      "Ġnetwork": 1850,
      "Ġelectr": 1851,
      "Ġstore": 1852,
      "15": 1853,
      "Ġcorn": 1854,
      "Ġsod": 1855,
      "Ġdrinking": 1856,
      "Ġchanges": 1857,
      "Ġiss": 1858,
      "umb": 1859,
      "Ġip": 1860,
      "Ġmeasure": 1861,
      "ese": 1862,
      "Ġincrease": 1863,
      "rogen": 1864,
      "Ġhuman": 1865,
      "Ġmobile": 1866,
      "Ġactiv": 1867,
      "nel": 1868,
      "Ġ60": 1869,
      "Ġsit": 1870,
      "urance": 1871,
      "Ġreceive": 1872,
      "ches": 1873,
      "Ġet": 1874,
      "Ġaustral": 1875,
      "iger": 1876,
      "ification": 1877,
      "Ġdid": 1878,
      "Ġtaking": 1879,
      "ently": 1880,
      "Ġpen": 1881,
      "80": 1882,
      "ered": 1883,
      "Ġ+": 1884,
      "erv": 1885,
      "Ġbuild": 1886,
      "oo": 1887,
      "Ġvac": 1888,
      "Ġchildren": 1889,
      "Ġyoutube": 1890,
      "Ġfre": 1891,
      "Ġ2018": 1892,
      "ength": 1893,
      "Ġrese": 1894,
      "Ġquest": 1895,
      "cohol": 1896,
      "Ġmater": 1897,
      "step": 1898,
      "Ġrad": 1899,
      "Ġcir": 1900,
      "Ġsure": 1901,
      "Ġla": 1902,
      "Ġgas": 1903,
      "Ġaway": 1904,
      "Ġmaking": 1905,
      "Ġcat": 1906,
      "itis": 1907,
      "Ġstep": 1908,
      "Ġdiet": 1909,
      "Ġstomach": 1910,
      "aster": 1911,
      "Ġbill": 1912,
      "Ġitem": 1913,
      "iot": 1914,
      "Ġmusic": 1915,
      "Ġicon": 1916,
      "Ġart": 1917,
      "Ġborn": 1918,
      "Ġimportant": 1919,
      "Ġmakes": 1920,
      "Ġmicro": 1921,
      "Ġmail": 1922,
      "par": 1923,
      "itions": 1924,
      "Ġlot": 1925,
      "Ġtechn": 1926,
      "Ġge": 1927,
      "Ġnatural": 1928,
      "Ġgoogle": 1929,
      "aves": 1930,
      "Ġunivers": 1931,
      "Ġimp": 1932,
      "Ġfall": 1933,
      "soci": 1934,
      "Ġok": 1935,
      "Ġtreatment": 1936,
      "Ġpounds": 1937,
      "ests": 1938,
      "osed": 1939,
      "Ġ17": 1940,
      "lex": 1941,
      "Ġbow": 1942,
      "Ġbegin": 1943,
      "oles": 1944,
      "Ġclos": 1945,
      "ender": 1946,
      "Ġdom": 1947,
      "Ġje": 1948,
      "Ġplant": 1949,
      "Ġdoesn": 1950,
      "yes": 1951,
      "bl": 1952,
      "osp": 1953,
      "Ġtre": 1954,
      "Ġmg": 1955,
      "Ġvitamin": 1956,
      "Ġcanada": 1957,
      "Ġalcohol": 1958,
      "Ġcase": 1959,
      "que": 1960,
      "Ġclean": 1961,
      "ush": 1962,
      "ille": 1963,
      "nt": 1964,
      "tract": 1965,
      "Ġlocated": 1966,
      "Ġmov": 1967,
      "Ġcosts": 1968,
      "ivid": 1969,
      "hyd": 1970,
      "Ġsever": 1971,
      "Ġclear": 1972,
      "Ġstrong": 1973,
      "Ġcalculate": 1974,
      "sp": 1975,
      "Ġgiven": 1976,
      "Ġcats": 1977,
      "Ġblu": 1978,
      "ove": 1979,
      "Ġsoft": 1980,
      "Ġsomething": 1981,
      "Ġdocum": 1982,
      "Ġsex": 1983,
      "Ġlikely": 1984,
      "Ġbreak": 1985,
      "Ġdegree": 1986,
      "iday": 1987,
      "Ġreplace": 1988,
      "Ġpair": 1989,
      "Ġdel": 1990,
      "Ġcondition": 1991,
      "izz": 1992,
      "Ġstay": 1993,
      "18": 1994,
      "Ġedit": 1995,
      "kemon": 1996,
      "Ġassoci": 1997,
      "Ġperform": 1998,
      "cal": 1999,
      "aper": 2000,
      "Ġquick": 2001,
      "Ġdark": 2002,
      "Ġspecial": 2003,
      "Ġinsurance": 2004,
      "Ġreport": 2005,
      "Ġcertain": 2006,
      "my": 2007,
      "Ġsaid": 2008,
      "Ġtrad": 2009,
      "Ġcopy": 2010,
      "Ġenough": 2011,
      "40": 2012,
      "Ġcomes": 2013,
      "Ġdriver": 2014,
      "cript": 2015,
      "Ġtit": 2016,
      "Ġspr": 2017,
      "Ġtext": 2018,
      "Ġreason": 2019,
      "Ġlear": 2020,
      "Ġgovernment": 2021,
      "Ġmaterial": 2022,
      "Ġdead": 2023,
      "Ġstream": 2024,
      "Ġconst": 2025,
      "ization": 2026,
      "Ġmarried": 2027,
      "gal": 2028,
      "ided": 2029,
      "ift": 2030,
      "Ġsuper": 2031,
      "bon": 2032,
      "abet": 2033,
      "thing": 2034,
      "lor": 2035,
      "dr": 2036,
      "Ġlove": 2037,
      "Ġparts": 2038,
      "Ġquality": 2039,
      "like": 2040,
      "ta": 2041,
      "Ġthings": 2042,
      ".âĢĿ": 2043,
      "Ġactually": 2044,
      "Ġcold": 2045,
      "Ġstat": 2046,
      "Ġcountries": 2047,
      "crib": 2048,
      "Ġbag": 2049,
      "Ġmembers": 2050,
      "Ġphoto": 2051,
      "Ġabs": 2052,
      "Ġbottom": 2053,
      "aim": 2054,
      "Ġminimum": 2055,
      "Ġthir": 2056,
      "Ġspecific": 2057,
      "Ġbelow": 2058,
      "Ġtoday": 2059,
      "Ġlanguage": 2060,
      "Ġapplication": 2061,
      "ined": 2062,
      "Ġseveral": 2063,
      "Ġinstall": 2064,
      "Ġisn": 2065,
      "Ġnear": 2066,
      "Ġsometimes": 2067,
      "Ġoz": 2068,
      "atures": 2069,
      "jo": 2070,
      "Ġtables": 2071,
      "Ġlat": 2072,
      "Ġhim": 2073,
      "Ġgain": 2074,
      "Ġlength": 2075,
      "Ġdoctor": 2076,
      "ived": 2077,
      "Ġer": 2078,
      "Ġmiles": 2079,
      "ino": 2080,
      "Ġfriends": 2081,
      "Ġmedical": 2082,
      "Ġjan": 2083,
      "Ġmarket": 2084,
      "osis": 2085,
      "Ġsend": 2086,
      "Ġcauses": 2087,
      "Ġide": 2088,
      "500": 2089,
      "cially": 2090,
      "which": 2091,
      "Ġgre": 2092,
      "Ġ90": 2093,
      "Ġbacter": 2094,
      "Ġdeli": 2095,
      "Ġbreast": 2096,
      "Ġfluid": 2097,
      "Ġnever": 2098,
      "ufact": 2099,
      "over": 2100,
      "Ġcode": 2101,
      "ilar": 2102,
      "Ġfar": 2103,
      "Ġrelations": 2104,
      "Ġabove": 2105,
      "Ġlocal": 2106,
      "Ġobject": 2107,
      "Ġgir": 2108,
      "Ġvehicle": 2109,
      "cus": 2110,
      "Ġpict": 2111,
      "ware": 2112,
      "Ġcancer": 2113,
      "Ġworking": 2114,
      "Ġmanage": 2115,
      "Ġoriginal": 2116,
      "Ġ23": 2117,
      "Ġgoing": 2118,
      "Ġpokemon": 2119,
      "head": 2120,
      "Ġprim": 2121,
      "Ġsalt": 2122,
      "Ġfem": 2123,
      "Ġwide": 2124,
      "Ġdisney": 2125,
      "Ġcub": 2126,
      "Ġvalid": 2127,
      "Ġblue": 2128,
      "yle": 2129,
      "Ġgetting": 2130,
      "Ġindivid": 2131,
      "Ġbase": 2132,
      "Ġbrown": 2133,
      "Ġwhole": 2134,
      "Ġmix": 2135,
      "Ġpound": 2136,
      "Ġoffice": 2137,
      "ont": 2138,
      "aly": 2139,
      "Ġmanufact": 2140,
      "Ġfederal": 2141,
      "time": 2142,
      "poons": 2143,
      "Ġblocked": 2144,
      "Ġcurrently": 2145,
      "Ġegg": 2146,
      "Ġlink": 2147,
      "ling": 2148,
      "Ġcut": 2149,
      "Ġadv": 2150,
      "Ġeye": 2151,
      "Ġamaz": 2152,
      "Ġproblems": 2153,
      "Ġdevices": 2154,
      "Ġye": 2155,
      "mas": 2156,
      "Ġ80": 2157,
      "Ġtell": 2158,
      "ned": 2159,
      "Ġdone": 2160,
      "ler": 2161,
      "ury": 2162,
      "Ġut": 2163,
      "Ġpurch": 2164,
      "Ġfish": 2165,
      "Ġtry": 2166,
      "raw": 2167,
      "Ġeating": 2168,
      "hy": 2169,
      "etooth": 2170,
      "Ġwr": 2171,
      "Ġnorth": 2172,
      "ma": 2173,
      "100": 2174,
      "Ġactive": 2175,
      "for": 2176,
      "por": 2177,
      "Ġcam": 2178,
      "11": 2179,
      "Ġap": 2180,
      "Ġbleeding": 2181,
      "Ġsimilar": 2182,
      "Ġlater": 2183,
      "ember": 2184,
      "Ġshare": 2185,
      "urs": 2186,
      "Ġgold": 2187,
      "Ġland": 2188,
      "Ġcannot": 2189,
      "Ġservices": 2190,
      "ially": 2191,
      "Ġcommun": 2192,
      "ably": 2193,
      "mm": 2194,
      "Ġupd": 2195,
      "Ġdeb": 2196,
      "ieve": 2197,
      "Ġexcel": 2198,
      "Ġing": 2199,
      "ward": 2200,
      "Ġrepres": 2201,
      "Ġequival": 2202,
      "Ġbluetooth": 2203,
      "ausea": 2204,
      "Ġindia": 2205,
      "Ġpaid": 2206,
      "Ġfactor": 2207,
      "way": 2208,
      "Ġchannel": 2209,
      "ging": 2210,
      "ba": 2211,
      "Ġeasy": 2212,
      "Ġoptions": 2213,
      "ols": 2214,
      "Ġpresident": 2215,
      "Ġque": 2216,
      "Ġconvert": 2217,
      "vir": 2218,
      "Ġ22": 2219,
      "Ġmal": 2220,
      "Ġthing": 2221,
      "mer": 2222,
      "Ġcooked": 2223,
      "Ġcertific": 2224,
      "Ġearth": 2225,
      "unes": 2226,
      "Ġsimply": 2227,
      "19": 2228,
      "ley": 2229,
      "Ġeggs": 2230,
      "Ġinfl": 2231,
      "face": 2232,
      "loud": 2233,
      "Ġchemical": 2234,
      "Ġwhy": 2235,
      "Ġprevent": 2236,
      "oks": 2237,
      "lock": 2238,
      "ca": 2239,
      "Ġalong": 2240,
      "ien": 2241,
      "Ġfore": 2242,
      "ellow": 2243,
      "Ġpriv": 2244,
      "fr": 2245,
      "yn": 2246,
      "Ġespe": 2247,
      "Ġfee": 2248,
      "Ġra": 2249,
      "aces": 2250,
      "most": 2251,
      "Â®": 2252,
      "Ġliqu": 2253,
      "roll": 2254,
      "Ġbattery": 2255,
      "Ġdoll": 2256,
      "Ġconsum": 2257,
      "Ġdiabet": 2258,
      "ho": 2259,
      "Ġworks": 2260,
      "Ġfoods": 2261,
      "Ġcaused": 2262,
      "ux": 2263,
      "Ġtrue": 2264,
      "Ġsound": 2265,
      "ouble": 2266,
      "tes": 2267,
      "Ġpopular": 2268,
      "Ġess": 2269,
      "sa": 2270,
      "Ġcitizens": 2271,
      "Ġfeed": 2272,
      "Ġclaim": 2273,
      "Ġorigin": 2274,
      "Ġprom": 2275,
      "Ġeffective": 2276,
      "Ġicloud": 2277,
      "ief": 2278,
      "ables": 2279,
      "Ġstory": 2280,
      "Ġsmart": 2281,
      "Ġsens": 2282,
      "Ġoffer": 2283,
      "Ġwear": 2284,
      "val": 2285,
      "Ġeyes": 2286,
      "Ġwritten": 2287,
      "Ġlay": 2288,
      "Ġgar": 2289,
      "Ġdrop": 2290,
      "Ġanimals": 2291,
      "Ġpresent": 2292,
      "down": 2293,
      "ugs": 2294,
      "Ġdisplay": 2295,
      "Ġjob": 2296,
      "Ġveget": 2297,
      "Ġmuscle": 2298,
      "set": 2299,
      "bre": 2300,
      "atory": 2301,
      "Ġconfir": 2302,
      "Ġvisit": 2303,
      "Ġgall": 2304,
      "ny": 2305,
      "Ġbasic": 2306,
      "inc": 2307,
      "Ġeuro": 2308,
      "Ġmultiple": 2309,
      "Ġequivalent": 2310,
      "Ġdamage": 2311,
      "Ġreally": 2312,
      "Ġiron": 2313,
      "Ġantib": 2314,
      "Ġserving": 2315,
      "Ġairp": 2316,
      "Ġsource": 2317,
      "Ġcharge": 2318,
      "resh": 2319,
      "Ġprovide": 2320,
      "unch": 2321,
      "ze": 2322,
      "Ġheat": 2323,
      "Ġingred": 2324,
      "side": 2325,
      "Ġcases": 2326,
      "Ġmeth": 2327,
      "Ġbabies": 2328,
      "Ġimpro": 2329,
      "Ġyellow": 2330,
      "Ġsigns": 2331,
      "Ġyoun": 2332,
      "Ġcollect": 2333,
      "ension": 2334,
      "ero": 2335,
      "Ġml": 2336,
      "Ġinfections": 2337,
      "Ġrelationship": 2338,
      "apan": 2339,
      "Ġhist": 2340,
      "ances": 2341,
      "Ġaustralia": 2342,
      "erc": 2343,
      "Ġprogram": 2344,
      "Ġindic": 2345,
      "\",": 2346,
      "Ġespecially": 2347,
      "Ġter": 2348,
      "ĠÂ£": 2349,
      "Ġeight": 2350,
      "Ġpet": 2351,
      "ission": 2352,
      "Ġtour": 2353,
      "\".": 2354,
      "Ġ*": 2355,
      "Ġprotect": 2356,
      "Ġrunning": 2357,
      "Ġbed": 2358,
      "Ġisland": 2359,
      "Ġelectric": 2360,
      "Ġspeed": 2361,
      "ha": 2362,
      "ression": 2363,
      "char": 2364,
      "ager": 2365,
      "Ġ,": 2366,
      "ils": 2367,
      "ote": 2368,
      "Ġamazon": 2369,
      "Ġcreate": 2370,
      "Ġrecommended": 2371,
      "Ġwed": 2372,
      "akes": 2373,
      "use": 2374,
      "Ġexpl": 2375,
      "ounced": 2376,
      "Ġglass": 2377,
      "Ġemploye": 2378,
      "Ġbrit": 2379,
      "13": 2380,
      "Ġsubst": 2381,
      "Ġteas": 2382,
      "Ġweigh": 2383,
      "omy": 2384,
      "acks": 2385,
      "ffe": 2386,
      "enter": 2387,
      "Ġjuice": 2388,
      "Ġbit": 2389,
      "Ġitunes": 2390,
      "Ġaccept": 2391,
      "Ġsil": 2392,
      "Ġflow": 2393,
      "rict": 2394,
      "ana": 2395,
      "Ġfactors": 2396,
      "Ġphysical": 2397,
      "Ġvacc": 2398,
      "iforn": 2399,
      "year": 2400,
      "Ġwarm": 2401,
      "Ġkind": 2402,
      "Ġclose": 2403,
      "reg": 2404,
      "Ġprofess": 2405,
      "Ġmultiply": 2406,
      "Ġrelease": 2407,
      "66": 2408,
      "Ġult": 2409,
      "Ġcolle": 2410,
      "ape": 2411,
      "Ġusb": 2412,
      "uff": 2413,
      "Ġprob": 2414,
      "Ġrock": 2415,
      "Ġmouth": 2416,
      "ifornia": 2417,
      "aste": 2418,
      "Ġnoun": 2419,
      "Ġ21": 2420,
      "Ġrice": 2421,
      "pm": 2422,
      ",âĢĿ": 2423,
      "Ġpan": 2424,
      "Ġpare": 2425,
      "Ġuses": 2426,
      "Ġjanuary": 2427,
      "Ġdigest": 2428,
      "ene": 2429,
      "ister": 2430,
      "avor": 2431,
      "Ġneeded": 2432,
      "Ġvolume": 2433,
      "Ġcash": 2434,
      "Ġextra": 2435,
      "Ġpu": 2436,
      "Ġolder": 2437,
      "Ġbutter": 2438,
      "Ġregist": 2439,
      "Ġcoup": 2440,
      "bal": 2441,
      "uel": 2442,
      "Ġeduc": 2443,
      "Ġcover": 2444,
      "la": 2445,
      "cut": 2446,
      "Ġsent": 2447,
      "Ġwire": 2448,
      "Ġteam": 2449,
      "ller": 2450,
      "Ġden": 2451,
      "Ġversion": 2452,
      "Ġyeast": 2453,
      "Ġdeterm": 2454,
      "Ġatoms": 2455,
      "Ġcourse": 2456,
      "asts": 2457,
      "amins": 2458,
      "Ġlog": 2459,
      "car": 2460,
      "acy": 2461,
      "Ġemploy": 2462,
      "Ġstop": 2463,
      "Ġmaxim": 2464,
      "aches": 2465,
      "Ġfield": 2466,
      "agram": 2467,
      "Ġjapan": 2468,
      "Ġestim": 2469,
      "Ġwi": 2470,
      "Ġbeh": 2471,
      "Ġcards": 2472,
      "Ġinvest": 2473,
      "Ġsection": 2474,
      "ished": 2475,
      "astic": 2476,
      "Ġprime": 2477,
      "Ġreleased": 2478,
      "rect": 2479,
      "Ġgerm": 2480,
      "ka": 2481,
      "Ġdriving": 2482,
      "dd": 2483,
      "Ġtur": 2484,
      "Ġpill": 2485,
      "Ġdeath": 2486,
      "Ġwait": 2487,
      "Ġcertificate": 2488,
      "Ġplants": 2489,
      "Ġstudy": 2490,
      "Ġthird": 2491,
      "Ġairpods": 2492,
      "Ġpick": 2493,
      "ouch": 2494,
      "cles": 2495,
      "Ġask": 2496,
      "Ġlose": 2497,
      "Ġfolder": 2498,
      "Ġinside": 2499,
      "hest": 2500,
      "Ġrefr": 2501,
      "Ġdisc": 2502,
      "Ġtex": 2503,
      "Ġwebs": 2504,
      "Ġcream": 2505,
      "Ġswitch": 2506,
      "ensive": 2507,
      "Ġvary": 2508,
      "change": 2509,
      "Ġsche": 2510,
      "Ġbrother": 2511,
      "Ġsav": 2512,
      "Ġcalifornia": 2513,
      "Ġtaken": 2514,
      "Ġ26": 2515,
      "Ġrare": 2516,
      "Ġpark": 2517,
      "key": 2518,
      "ming": 2519,
      "22": 2520,
      "Ġwat": 2521,
      "Ġcand": 2522,
      "amps": 2523,
      "Ġtherefore": 2524,
      ",\"": 2525,
      "Ġperfect": 2526,
      "etic": 2527,
      "Ġproperty": 2528,
      "ision": 2529,
      "Ġcontent": 2530,
      "Ġincludes": 2531,
      "has": 2532,
      "ental": 2533,
      "wor": 2534,
      "Â°": 2535,
      "anger": 2536,
      "ians": 2537,
      "Ġvitamins": 2538,
      "Ġautom": 2539,
      "Ġleave": 2540,
      "Ġflo": 2541,
      "Ġresearch": 2542,
      "Ġchristmas": 2543,
      "aps": 2544,
      "Ġbrain": 2545,
      "Ġkidney": 2546,
      "Ġanywhere": 2547,
      "ffee": 2548,
      "ault": 2549,
      "Ġbreat": 2550,
      "Ġinterest": 2551,
      "Ġroom": 2552,
      "mi": 2553,
      "Ġtal": 2554,
      "Ġepisodes": 2555,
      "hea": 2556,
      "Ġexerc": 2557,
      "soft": 2558,
      "no": 2559,
      "Ġoct": 2560,
      "Ġcommonly": 2561,
      "Ġfever": 2562,
      "Ġamerica": 2563,
      "Ġtests": 2564,
      "affe": 2565,
      "Ġcable": 2566,
      "Ġever": 2567,
      "Ġang": 2568,
      "Ġneg": 2569,
      "Ġagainst": 2570,
      "Ġhar": 2571,
      "75": 2572,
      "Ġvi": 2573,
      "cription": 2574,
      "Ġothers": 2575,
      "ama": 2576,
      "Ġcoun": 2577,
      "ised": 2578,
      "pa": 2579,
      "33": 2580,
      "Ġded": 2581,
      "cher": 2582,
      "Ġslow": 2583,
      "Ġyork": 2584,
      "Ġcycle": 2585,
      "Ġcarbs": 2586,
      "Ġpurp": 2587,
      "Ġconditions": 2588,
      "Ġaud": 2589,
      "you": 2590,
      "Ġpoison": 2591,
      "Ġmount": 2592,
      "Ġandroid": 2593,
      "Ġcarry": 2594,
      "Ġhorm": 2595,
      "16": 2596,
      "ga": 2597,
      "Ġdiabetes": 2598,
      "vi": 2599,
      "Ġvegan": 2600,
      "Ġhelps": 2601,
      "Ġchrom": 2602,
      "Ġmc": 2603,
      "Ġelectrons": 2604,
      "Ġcoffee": 2605,
      "Ġreduce": 2606,
      "Ġ28": 2607,
      "Ġfiber": 2608,
      "Ġsweet": 2609,
      "raft": 2610,
      "200": 2611,
      "Ġspecies": 2612,
      "Ġspace": 2613,
      "omiting": 2614,
      "ued": 2615,
      "Ġrefriger": 2616,
      "Ġ[\"": 2617,
      "Ġdeleted": 2618,
      "ades": 2619,
      "Ġpract": 2620,
      "Ġmile": 2621,
      "Ġmeat": 2622,
      "ding": 2623,
      "Ġfriend": 2624,
      "ida": 2625,
      "Ġteeth": 2626,
      "Ġsimple": 2627,
      "Ġspot": 2628,
      "Ġfrequ": 2629,
      "Ġten": 2630,
      "Ġ45": 2631,
      "Ġvo": 2632,
      "24": 2633,
      "Ġplayers": 2634,
      "Ġhydrogen": 2635,
      "Ġfresh": 2636,
      "Ġlib": 2637,
      "Ġmedicine": 2638,
      "poon": 2639,
      "Ġpositive": 2640,
      "Ġstored": 2641,
      "Ġnames": 2642,
      "vious": 2643,
      "Ġwoman": 2644,
      "Ġwindow": 2645,
      "oxide": 2646,
      "aut": 2647,
      "Ġcarbon": 2648,
      "Ġpayment": 2649,
      "Ġoxy": 2650,
      ".)": 2651,
      "Ġrefer": 2652,
      "Ġplayer": 2653,
      "Ġinstagram": 2654,
      "Ġheav": 2655,
      "Ġpotato": 2656,
      "orning": 2657,
      "Ġinternational": 2658,
      "atible": 2659,
      "da": 2660,
      "Ġdefinition": 2661,
      "Ġinstr": 2662,
      "aries": 2663,
      "Ġmarch": 2664,
      "Ġbur": 2665,
      "Ġuniversity": 2666,
      "Ġmind": 2667,
      "Ġgod": 2668,
      "Ġsurface": 2669,
      "14": 2670,
      "Ġlocation": 2671,
      "Ġantibiot": 2672,
      "hor": 2673,
      "press": 2674,
      "vere": 2675,
      "ead": 2676,
      ".\"]": 2677,
      "nes": 2678,
      "Ġnecess": 2679,
      "Ġdrug": 2680,
      "ators": 2681,
      "Ġille": 2682,
      "ateg": 2683,
      "Ġcenter": 2684,
      "Ġstock": 2685,
      "Ġkg": 2686,
      "ml": 2687,
      "Ġneeds": 2688,
      "Ġrepresent": 2689,
      "ands": 2690,
      "Ġmas": 2691,
      "Ġimm": 2692,
      "Ġgam": 2693,
      "Ġgot": 2694,
      "Ġanimal": 2695,
      "put": 2696,
      "ural": 2697,
      "Ġmode": 2698,
      "Ġill": 2699,
      "Ġlimit": 2700,
      "Ġcaffe": 2701,
      "Ġmaximum": 2702,
      "Ġmat": 2703,
      "bc": 2704,
      "Ġvia": 2705,
      "will": 2706,
      "Ġadmin": 2707,
      "Ġice": 2708,
      "Ġ:": 2709,
      "Ġfort": 2710,
      "wards": 2711,
      "Ġoxygen": 2712,
      "Ġsoon": 2713,
      "cing": 2714,
      "Ġrule": 2715,
      "Ġwebsite": 2716,
      "ules": 2717,
      "Ġliver": 2718,
      "Ġopp": 2719,
      "Ġtele": 2720,
      "Ġroot": 2721,
      "board": 2722,
      "Ġnu": 2723,
      "Ġ199": 2724,
      "Ġillegal": 2725,
      "Ġdece": 2726,
      "ses": 2727,
      "Ġcubic": 2728,
      "order": 2729,
      "Ġmorning": 2730,
      "Ġrout": 2731,
      "Ġbacteria": 2732,
      "Ġapr": 2733,
      "Ġkill": 2734,
      "ost": 2735,
      "roat": 2736,
      "Ġmach": 2737,
      "Ġafric": 2738,
      "Ġseven": 2739,
      "Ġremain": 2740,
      "Ġexist": 2741,
      "atio": 2742,
      "Ġbon": 2743,
      "Ġtoxic": 2744,
      "Ġsubs": 2745,
      "Ġeurope": 2746,
      "Ġtaxes": 2747,
      "Ġbeans": 2748,
      "iny": 2749,
      "orr": 2750,
      "Ġhumans": 2751,
      "Ġshows": 2752,
      "Ġglo": 2753,
      "Ġlin": 2754,
      "aced": 2755,
      "Ġstick": 2756,
      "amed": 2757,
      "Ġple": 2758,
      "ipe": 2759,
      "Ġpaper": 2760,
      "Ġchromos": 2761,
      "Ġareas": 2762,
      "Ġfix": 2763,
      "Ġmessage": 2764,
      "Ġharm": 2765,
      "Ġjune": 2766,
      "ention": 2767,
      "Ġwood": 2768,
      "Ġsept": 2769,
      "viron": 2770,
      "lit": 2771,
      "Ġchina": 2772,
      "Ġipad": 2773,
      "Ġdro": 2774,
      "Ġeducation": 2775,
      "ych": 2776,
      "Ġalmost": 2777,
      "Ġavoid": 2778,
      "Ġinternet": 2779,
      "Ġnote": 2780,
      "Ġchamp": 2781,
      "Ġannounced": 2782,
      "Ġcamer": 2783,
      ")']": 2784,
      "arily": 2785,
      "Ġproduce": 2786,
      "Ġlap": 2787,
      "Ġofficial": 2788,
      "Ġze": 2789,
      "Ġcaffeine": 2790,
      "ening": 2791,
      "Ġpoly": 2792,
      "bit": 2793,
      "Ġurine": 2794,
      "Ġitems": 2795,
      "Ġfruit": 2796,
      "Ġstruct": 2797,
      "Ġapril": 2798,
      "Ġmer": 2799,
      "Ġdevelopment": 2800,
      "Ġtraining": 2801,
      "tone": 2802,
      "Ġaren": 2803,
      "ole": 2804,
      "Ġvine": 2805,
      "Ġsignature": 2806,
      "Ġbook": 2807,
      "Ġliving": 2808,
      "Ġsearch": 2809,
      "Ġpie": 2810,
      "Ġsold": 2811,
      "Ġpal": 2812,
      "Ġpicture": 2813,
      "Ġsick": 2814,
      "istics": 2815,
      "hydr": 2816,
      "70": 2817,
      "idge": 2818,
      "Ġingredients": 2819,
      "Ġsepar": 2820,
      "su": 2821,
      "Ġwashing": 2822,
      "ague": 2823,
      "Ġson": 2824,
      "Ġfilm": 2825,
      "Ġcollege": 2826,
      "Ġcompatible": 2827,
      "Ġinstead": 2828,
      "ctions": 2829,
      "proof": 2830,
      "hen": 2831,
      "Ġgrowth": 2832,
      "Ġinj": 2833,
      "iction": 2834,
      "Ġfac": 2835,
      "Ġanything": 2836,
      "Ġmanagement": 2837,
      "vered": 2838,
      "ties": 2839,
      "Ġetc": 2840,
      "Ġqueen": 2841,
      "Ġsug": 2842,
      "Ġvirus": 2843,
      "Ġ29": 2844,
      "Ġcorner": 2845,
      "Ġadded": 2846,
      "iding": 2847,
      "ums": 2848,
      "ully": 2849,
      "Ġhappens": 2850,
      "born": 2851,
      "Ġsuc": 2852,
      "Ġjoh": 2853,
      "Ġelig": 2854,
      "Ġfro": 2855,
      "dle": 2856,
      "ads": 2857,
      "inary": 2858,
      "Ġnove": 2859,
      "Ġamong": 2860,
      "Ġburned": 2861,
      "Ġsell": 2862,
      "ended": 2863,
      "gress": 2864,
      "Ġmagn": 2865,
      "Ġlabor": 2866,
      "Ġhd": 2867,
      "Ġdest": 2868,
      "Ġheight": 2869,
      "Ġrequirements": 2870,
      "comp": 2871,
      "Ġscore": 2872,
      "Ġrecover": 2873,
      "Ġmanager": 2874,
      "rees": 2875,
      "Ġdial": 2876,
      "enses": 2877,
      "Ġindividual": 2878,
      "ograp": 2879,
      "Ġdrugs": 2880,
      "Ġfly": 2881,
      "Ġentire": 2882,
      "Ġnovember": 2883,
      "Ġbowl": 2884,
      "Ġfemale": 2885,
      "Ġlarger": 2886,
      "reme": 2887,
      "Ġwall": 2888,
      "Ġdouble": 2889,
      "Ġfraction": 2890,
      "ronic": 2891,
      "Ġminute": 2892,
      "ilt": 2893,
      "Ġton": 2894,
      "Ġringtone": 2895,
      "Ġtiss": 2896,
      "Ġessential": 2897,
      "reng": 2898,
      "Ġfront": 2899,
      "Ġupper": 2900,
      "Ġwhether": 2901,
      "Ġwash": 2902,
      "Ġthroat": 2903,
      "mission": 2904,
      "Ġliquid": 2905,
      "Ġfig": 2906,
      "icy": 2907,
      "Ġmovie": 2908,
      "Ġterms": 2909,
      "Ġsodium": 2910,
      "bi": 2911,
      "Ġsubject": 2912,
      "Ġâ": 2913,
      "Ġdecember": 2914,
      "aph": 2915,
      "Ġfees": 2916,
      "Ġkit": 2917,
      "izes": 2918,
      "Ġ|": 2919,
      "Ġhistory": 2920,
      "Ġfriday": 2921,
      "Ġforce": 2922,
      "aring": 2923,
      "Ġbring": 2924,
      "vironment": 2925,
      "Ġbat": 2926,
      "urt": 2927,
      "Ġ36": 2928,
      "Ġupdate": 2929,
      "Ġassociated": 2930,
      "rel": 2931,
      "Ġuser": 2932,
      "Ġshoes": 2933,
      "Ġmicrosoft": 2934,
      "Ġfur": 2935,
      "Ġvinegar": 2936,
      "Ġacross": 2937,
      "Ġnegative": 2938,
      "Ġtouch": 2939,
      "Ġmag": 2940,
      "anch": 2941,
      "Ġ500": 2942,
      "pping": 2943,
      "ername": 2944,
      "Ġusa": 2945,
      "ober": 2946,
      "Ġfine": 2947,
      "Ġaccounts": 2948,
      "Ġdanger": 2949,
      "Ġgram": 2950,
      "Ġadult": 2951,
      "Ġshot": 2952,
      "oma": 2953,
      "omic": 2954,
      "Ġsatur": 2955,
      "zen": 2956,
      "23": 2957,
      "Ġocc": 2958,
      "Ġcm": 2959,
      "light": 2960,
      "Ġjuly": 2961,
      "ibut": 2962,
      "45": 2963,
      "Ġsaf": 2964,
      "Ġindian": 2965,
      "Ġcoming": 2966,
      "Ġadminist": 2967,
      "Ġcrim": 2968,
      "Ġvomiting": 2969,
      "ena": 2970,
      "Ġmm": 2971,
      "Ġquar": 2972,
      "Ġinvol": 2973,
      "Ġraw": 2974,
      "Ġregion": 2975,
      "Ġprovides": 2976,
      "Ġcapital": 2977,
      "]',": 2978,
      "Ġweak": 2979,
      "ulu": 2980,
      "tic": 2981,
      "Ġhit": 2982,
      "Ġ32": 2983,
      "arrhea": 2984,
      "Ġformat": 2985,
      "Ġswim": 2986,
      "augh": 2987,
      "Ġcentral": 2988,
      "Ġtree": 2989,
      "inations": 2990,
      "hern": 2991,
      "Ġexercise": 2992,
      "Ġlate": 2993,
      "Ġparticular": 2994,
      "Ġalb": 2995,
      "Ġfert": 2996,
      "Ġwithd": 2997,
      "Ġmale": 2998,
      "duct": 2999,
      "Ġdivide": 3000,
      "Ġleague": 3001,
      "back": 3002,
      "Ġvideos": 3003,
      "Ġcourt": 3004,
      "onal": 3005,
      "Ġbackup": 3006,
      "Ġ150": 3007,
      "Ġpa": 3008,
      "Ġwid": 3009,
      "aged": 3010,
      "Ġrather": 3011,
      "Ġ27": 3012,
      "Ġoctober": 3013,
      "Ġ70": 3014,
      "Ġconsider": 3015,
      "here": 3016,
      "Ġtom": 3017,
      "Ġtexas": 3018,
      "ique": 3019,
      "Ġmotor": 3020,
      "Ġhor": 3021,
      "Ġaddition": 3022,
      "90": 3023,
      "Ġdoing": 3024,
      "Ġtar": 3025,
      "Ġbath": 3026,
      "Ġdesigned": 3027,
      "Ġgirl": 3028,
      "Ġliter": 3029,
      "Ġspread": 3030,
      "idence": 3031,
      "aff": 3032,
      "Ġfeatures": 3033,
      "Ġmonday": 3034,
      "Ġprofessional": 3035,
      "Ġtablespoons": 3036,
      "Ġremove": 3037,
      "Ġsalary": 3038,
      "Ġground": 3039,
      "clus": 3040,
      "Ġstreng": 3041,
      "Ġstatus": 3042,
      "ery": 3043,
      "Ġlearn": 3044,
      "Ġstores": 3045,
      "Ġcars": 3046,
      "cast": 3047,
      "Ġoverall": 3048,
      "Ġadditional": 3049,
      "cular": 3050,
      "Ġallows": 3051,
      "Ġ1000": 3052,
      "orie": 3053,
      "Ġmodel": 3054,
      "Ġeasily": 3055,
      "Ġmis": 3056,
      "Ġboy": 3057,
      "ready": 3058,
      "ground": 3059,
      "Ġsunday": 3060,
      "Ġmember": 3061,
      "Ġthink": 3062,
      "Ġwest": 3063,
      "bol": 3064,
      "Ġmedium": 3065,
      "uction": 3066,
      "Ġcontroller": 3067,
      "Ġexpress": 3068,
      "Ġrough": 3069,
      "Ġthin": 3070,
      "Ġengineer": 3071,
      "Ġjobs": 3072,
      "Ġdetails": 3073,
      "Ġnotice": 3074,
      "ius": 3075,
      "Ġball": 3076,
      "Ġpatients": 3077,
      "Ġounce": 3078,
      "Ġdegrees": 3079,
      "Ġpremie": 3080,
      "Ġevent": 3081,
      "Ġmeet": 3082,
      "Ġimpl": 3083,
      "ancial": 3084,
      "Ġsnow": 3085,
      "Ġintro": 3086,
      "ficult": 3087,
      "Ġovulation": 3088,
      "Ġsales": 3089,
      "Ġstarting": 3090,
      "nam": 3091,
      "emplo": 3092,
      "Ġdepart": 3093,
      "17": 3094,
      "Ġbritish": 3095,
      "Ġbud": 3096,
      "endent": 3097,
      "Ġusers": 3098,
      "ror": 3099,
      "ilities": 3100,
      "Ġspeak": 3101,
      "stand": 3102,
      "Ġsevere": 3103,
      "istant": 3104,
      "Ġflor": 3105,
      "Ġwireless": 3106,
      "35": 3107,
      "Ġecon": 3108,
      "Ġappears": 3109,
      "Ġstudents": 3110,
      "Ġnav": 3111,
      "Ġobtain": 3112,
      "Ġpink": 3113,
      "Ġoutside": 3114,
      "pped": 3115,
      "Ġaug": 3116,
      "charge": 3117,
      "Ġnausea": 3118,
      "ifi": 3119,
      "rench": 3120,
      "Ġnutr": 3121,
      "Ġ120": 3122,
      "Ġexact": 3123,
      "Ġchromosomes": 3124,
      "cium": 3125,
      "ring": 3126,
      "hib": 3127,
      "Ġnormally": 3128,
      "tty": 3129,
      "Ġleaves": 3130,
      "Ġdescrib": 3131,
      "igr": 3132,
      "Ġcompletely": 3133,
      "Ġimprove": 3134,
      "Ġfully": 3135,
      "Ġsky": 3136,
      "Ġdocument": 3137,
      "Ġsand": 3138,
      "Ġwalk": 3139,
      "Ġweb": 3140,
      "Ġ)": 3141,
      "add": 3142,
      "Ġadults": 3143,
      "Ġrequires": 3144,
      "Ġprobably": 3145,
      "Ġmel": 3146,
      "Ġdistance": 3147,
      "medi": 3148,
      "right": 3149,
      "Ġmaterials": 3150,
      "imal": 3151,
      "Ġdirectly": 3152,
      "Ġcriminal": 3153,
      "craft": 3154,
      "Ġsnap": 3155,
      "Ġunlike": 3156,
      "Ġclosed": 3157,
      "Ġdrag": 3158,
      "Ġlaptop": 3159,
      "Ġwild": 3160,
      "Ġself": 3161,
      "Ġwithdraw": 3162,
      "Ġdie": 3163,
      "tar": 3164,
      "Ġcouple": 3165,
      "Ġren": 3166,
      "Ġbone": 3167,
      "itor": 3168,
      "Ġinit": 3169,
      "mp": 3170,
      "Ġyet": 3171,
      "Ġserious": 3172,
      "Ġquickly": 3173,
      "employ": 3174,
      "Ġconce": 3175,
      "Ġca": 3176,
      "aled": 3177,
      "Ġscr": 3178,
      "Ġseeds": 3179,
      "Ġalready": 3180,
      "Ġ31": 3181,
      "phones": 3182,
      "Ġproblem": 3183,
      "Ġelements": 3184,
      "Ġtwice": 3185,
      "Ġsen": 3186,
      "Ġdesp": 3187,
      "bruary": 3188,
      "Ġdeduct": 3189,
      "Ġcompet": 3190,
      "Ġsmaller": 3191,
      "Ġprivate": 3192,
      "Ġsco": 3193,
      "Ġhun": 3194,
      "Ġschedu": 3195,
      "Ġsmo": 3196,
      "Ġlost": 3197,
      "Ġmild": 3198,
      ".,": 3199,
      "Ġtea": 3200,
      "Ġnutri": 3201,
      "Ġcorrect": 3202,
      "choose": 3203,
      "Ġunless": 3204,
      "Ġtitle": 3205,
      "uk": 3206,
      "Ġnews": 3207,
      "Ġslight": 3208,
      "Ġ35": 3209,
      "uss": 3210,
      "Ġmenstr": 3211,
      "pat": 3212,
      "ising": 3213,
      "bohydr": 3214,
      "Ġoffers": 3215,
      "Ġthroughout": 3216,
      "di": 3217,
      "ologist": 3218,
      "Ġeligible": 3219,
      "Ġsong": 3220,
      "Ġfif": 3221,
      "Ġdim": 3222,
      "Ġrequest": 3223,
      "Ġhulu": 3224,
      "airy": 3225,
      "Ġitself": 3226,
      "Ġstreaming": 3227,
      "Ġhosp": 3228,
      "Ġjud": 3229,
      "off": 3230,
      "Ġdiam": 3231,
      "Ġvag": 3232,
      "ulf": 3233,
      "Ġannual": 3234,
      "Ġdepends": 3235,
      "Ġcreat": 3236,
      "Ġ\",": 3237,
      "Ġbul": 3238,
      "care": 3239,
      "Ġyoung": 3240,
      "Ġpy": 3241,
      "Ġmessages": 3242,
      "Ġmatter": 3243,
      "Ġauthor": 3244,
      "Ġpurchase": 3245,
      "ises": 3246,
      "Ġperiods": 3247,
      "igue": 3248,
      "Ġprimary": 3249,
      "Ġproduced": 3250,
      "Ġideal": 3251,
      "lam": 3252,
      "Ġkm": 3253,
      "Ġproduction": 3254,
      "Ġdetect": 3255,
      "Ġcool": 3256,
      "Ġorange": 3257,
      "ogn": 3258,
      "Ġquestion": 3259,
      "ites": 3260,
      "cel": 3261,
      "verse": 3262,
      "Ġmort": 3263,
      "Ġusername": 3264,
      "Ġpermit": 3265,
      "Ġevol": 3266,
      "Ġhighest": 3267,
      "Ġincreased": 3268,
      "Ġstor": 3269,
      "Ġ2017": 3270,
      "Ġcateg": 3271,
      "Ġdeep": 3272,
      "Ġ--": 3273,
      "cont": 3274,
      "Ġmaintain": 3275,
      "Ġfootball": 3276,
      "Ġactivity": 3277,
      "Ġseptember": 3278,
      "ops": 3279,
      "based": 3280,
      "Ġsurger": 3281,
      "Ġpsych": 3282,
      "wood": 3283,
      "erve": 3284,
      "Ġstyle": 3285,
      "Ġmother": 3286,
      "Ġsuccess": 3287,
      "Ġcarbohydr": 3288,
      "Ġflorida": 3289,
      "Ġcross": 3290,
      "Ġrom": 3291,
      "Ġpupp": 3292,
      "ication": 3293,
      "Ġdocuments": 3294,
      "Ġimage": 3295,
      "Ġenvironment": 3296,
      "Ġcontinue": 3297,
      "iles": 3298,
      "Ġflight": 3299,
      "type": 3300,
      "mary": 3301,
      "Ġreview": 3302,
      "Ġdelivery": 3303,
      "Ġdangerous": 3304,
      "Ġnucle": 3305,
      "Ġpin": 3306,
      "Ġtend": 3307,
      "Ġdip": 3308,
      "Ġshown": 3309,
      "Ġmax": 3310,
      "cks": 3311,
      "izon": 3312,
      "Ġfebruary": 3313,
      "Ġcast": 3314,
      "ava": 3315,
      "Ġreach": 3316,
      "Ġatm": 3317,
      "cules": 3318,
      "Ġdivided": 3319,
      "Ġpred": 3320,
      "Ġdistr": 3321,
      "Ġchoice": 3322,
      "Ġpets": 3323,
      "Ġconsist": 3324,
      "Ġdollars": 3325,
      "Ġrefers": 3326,
      "Ġfeeling": 3327,
      "rup": 3328,
      "anced": 3329,
      "Ġmethod": 3330,
      "Ġdespite": 3331,
      "unk": 3332,
      "under": 3333,
      "Ġlargest": 3334,
      "Ġmuscles": 3335,
      "Ġcommand": 3336,
      "21": 3337,
      "inger": 3338,
      "Ġbillion": 3339,
      "Ġapps": 3340,
      "Ġbroad": 3341,
      "Ġviews": 3342,
      "Ġtypical": 3343,
      "Ġrespons": 3344,
      "Ġchampions": 3345,
      "ibility": 3346,
      "Ġscre": 3347,
      "Ġproperties": 3348,
      "Ġvirgin": 3349,
      "Ġsurv": 3350,
      "Ġsurgery": 3351,
      "zy": 3352,
      "Ġpills": 3353,
      "term": 3354,
      "ners": 3355,
      "ference": 3356,
      "anut": 3357,
      "sel": 3358,
      "Ġaltern": 3359,
      "Ġamounts": 3360,
      "ulate": 3361,
      "Ġcalcium": 3362,
      "Ġdre": 3363,
      "Ġdepos": 3364,
      "Ġrich": 3365,
      "Ġparen": 3366,
      "Ġscient": 3367,
      "erals": 3368,
      "Ġliters": 3369,
      "Ġmatt": 3370,
      "Ġthick": 3371,
      "Ġirrit": 3372,
      "amsung": 3373,
      "adem": 3374,
      "Ġboard": 3375,
      "Ġsounds": 3376,
      "ched": 3377,
      "Ġexe": 3378,
      "Ġlimited": 3379,
      "Ġios": 3380,
      "Ġcough": 3381,
      "Ġcreated": 3382,
      "Ġmexic": 3383,
      "Ġprevious": 3384,
      "Ġoccurs": 3385,
      "ff": 3386,
      "Ġround": 3387,
      "Ġdefined": 3388,
      "met": 3389,
      "Ġcovered": 3390,
      "Ġwine": 3391,
      "Ġder": 3392,
      "Ġburns": 3393,
      "Ġseen": 3394,
      "Ġsystems": 3395,
      "Ġperman": 3396,
      ",',": 3397,
      "Ġcounty": 3398,
      "Ġletter": 3399,
      "Ġod": 3400,
      "Ġsq": 3401,
      "Ġaff": 3402,
      "Ġdut": 3403,
      "Ġroll": 3404,
      "Ġchocol": 3405,
      "Ġfail": 3406,
      "Ġplastic": 3407,
      "tt": 3408,
      "Ġcomfort": 3409,
      "ifications": 3410,
      "Ġdifficult": 3411,
      "Ġzero": 3412,
      "Ġexcept": 3413,
      "Ġstars": 3414,
      "Ġscience": 3415,
      "Ġpeanut": 3416,
      "Ġskills": 3417,
      "Ġtickets": 3418,
      "Ġax": 3419,
      "Ġforms": 3420,
      "Ġib": 3421,
      "lim": 3422,
      "Ġvan": 3423,
      "Ġantibiotics": 3424,
      "ÃĹ": 3425,
      "Ġbaking": 3426,
      "Ġdna": 3427,
      "ae": 3428,
      "anges": 3429,
      "eve": 3430,
      "your": 3431,
      "Ġreve": 3432,
      "oph": 3433,
      "Ġcheese": 3434,
      "asing": 3435,
      "Ġroad": 3436,
      "Ġstudies": 3437,
      "Ġlooking": 3438,
      "Ġreplacement": 3439,
      "Ġstatement": 3440,
      "Ġintake": 3441,
      "cm": 3442,
      "cs": 3443,
      "iled": 3444,
      "fi": 3445,
      "ike": 3446,
      "Ġmolecules": 3447,
      "29": 3448,
      "vision": 3449,
      "Ġquestions": 3450,
      "Ġsoda": 3451,
      "Ġii": 3452,
      "Ġmodern": 3453,
      "Ġlos": 3454,
      "Ġgoes": 3455,
      "Ġsamsung": 3456,
      "Ġcro": 3457,
      "Ġcompan": 3458,
      "Ġrecogn": 3459,
      "Ġfinancial": 3460,
      "Ġserver": 3461,
      "Ġdecre": 3462,
      "Ġdish": 3463,
      "Ġaccur": 3464,
      "Ġbible": 3465,
      "joy": 3466,
      "Ġindep": 3467,
      "Ġfunctions": 3468,
      "Ġemployees": 3469,
      "Ġtherap": 3470,
      "Ġattack": 3471,
      "Ġsite": 3472,
      "Ġmedia": 3473,
      "iac": 3474,
      "Ġmiddle": 3475,
      "rs": 3476,
      "Ġexcess": 3477,
      "Ġjack": 3478,
      "endo": 3479,
      "Ġsignific": 3480,
      "Ġmedication": 3481,
      "see": 3482,
      "ios": 3483,
      "Ġpotatoes": 3484,
      "terol": 3485,
      "Ġwhereas": 3486,
      "Ġpretty": 3487,
      "Ġrecords": 3488,
      "imate": 3489,
      "Ġanti": 3490,
      "ivity": 3491,
      "Ġspots": 3492,
      "Ġstress": 3493,
      "800": 3494,
      "Ġgets": 3495,
      "ened": 3496,
      "Ġcalls": 3497,
      "Ġdur": 3498,
      "enty": 3499,
      "olic": 3500,
      "Ġallerg": 3501,
      "Ġrepair": 3502,
      "pal": 3503,
      "Ġdefic": 3504,
      "Ġtim": 3505,
      "ob": 3506,
      "Ġdat": 3507,
      "otes": 3508,
      "ensions": 3509,
      "Ġcalorie": 3510,
      "aby": 3511,
      "iency": 3512,
      "Ġstrength": 3513,
      "olesterol": 3514,
      "Ġbigger": 3515,
      "Ġfaster": 3516,
      "ales": 3517,
      "Ġadj": 3518,
      "Ġaction": 3519,
      "Ġimmedi": 3520,
      "Ġprep": 3521,
      "vert": 3522,
      "Ġitch": 3523,
      "Ġpig": 3524,
      "Ġdoor": 3525,
      "Ġdraw": 3526,
      "Ġrates": 3527,
      "Ġsports": 3528,
      "Ġparty": 3529,
      "Ġphil": 3530,
      "assium": 3531,
      "rary": 3532,
      "Ġticket": 3533,
      "Ġdefault": 3534,
      "Ġsteps": 3535,
      "Ġchocolate": 3536,
      "Ġbeach": 3537,
      "Ġsus": 3538,
      "Ġwidth": 3539,
      "employment": 3540,
      "Ġlicence": 3541,
      "Ġvariety": 3542,
      "Ġbones": 3543,
      "Ġplayed": 3544,
      "Ġmich": 3545,
      "Ġcholesterol": 3546,
      "Ġoh": 3547,
      "adu": 3548,
      "mat": 3549,
      "'d": 3550,
      "Ġmedications": 3551,
      "Ġ198": 3552,
      "ilit": 3553,
      "Ġhospital": 3554,
      "Ġgives": 3555,
      "Ġmetal": 3556,
      "Ġposition": 3557,
      "Ġband": 3558,
      "Ġflour": 3559,
      "Ġmenstrual": 3560,
      "gb": 3561,
      "ively": 3562,
      "Ġgreatest": 3563,
      "oups": 3564,
      "Ġdv": 3565,
      "uits": 3566,
      "lied": 3567,
      "Ġrub": 3568,
      "Ġpub": 3569,
      "Ġaugust": 3570,
      "Ġven": 3571,
      "ounce": 3572,
      "ya": 3573,
      "Ġnine": 3574,
      "Ġcharacteristics": 3575,
      "ached": 3576,
      "acher": 3577,
      "Ġclub": 3578,
      "Ġnose": 3579,
      "Ġbottle": 3580,
      "Ġdiarrhea": 3581,
      "Ġremoved": 3582,
      "Ġstorage": 3583,
      "Ġcider": 3584,
      "Ġproject": 3585,
      "Ġkingdom": 3586,
      "Ġeth": 3587,
      "Ġcontract": 3588,
      "Ġretire": 3589,
      "Ġslightly": 3590,
      "Ġaz": 3591,
      "Ġofficer": 3592,
      "Ġbuilt": 3593,
      "Ġcab": 3594,
      "ained": 3595,
      "hold": 3596,
      "Ġfrench": 3597,
      "pound": 3598,
      "Ġabdom": 3599,
      "Ġverb": 3600,
      "log": 3601,
      "Ġanaly": 3602,
      "Ġseem": 3603,
      "Ġhost": 3604,
      "Ġincluded": 3605,
      "hs": 3606,
      "ij": 3607,
      "Ġgun": 3608,
      "Ġstage": 3609,
      "Ġtrack": 3610,
      "Ġprior": 3611,
      "mg": 3612,
      "Ġloan": 3613,
      "Ġminerals": 3614,
      "night": 3615,
      "Ġacadem": 3616,
      "Ġability": 3617,
      "Ġlif": 3618,
      "Ġdeal": 3619,
      "Ġflat": 3620,
      "net": 3621,
      "Ġexpensive": 3622,
      "pre": 3623,
      "aks": 3624,
      "gage": 3625,
      "Ġsoftware": 3626,
      "Ġach": 3627,
      "Ġpump": 3628,
      "connect": 3629,
      "Ġsafety": 3630,
      "Ġcamera": 3631,
      "hg": 3632,
      "ymph": 3633,
      "ili": 3634,
      "Ġwinter": 3635,
      "Ġenc": 3636,
      "Ġpopulation": 3637,
      "Ġmemory": 3638,
      "arian": 3639,
      "Ġnic": 3640,
      "Ġgal": 3641,
      "Ġtaxable": 3642,
      "intendo": 3643,
      "Ġcompon": 3644,
      "Ġcamp": 3645,
      "Ġmarriage": 3646,
      "Ġroughly": 3647,
      "rol": 3648,
      "yal": 3649,
      "Ġconfirmed": 3650,
      "gg": 3651,
      "Ġthus": 3652,
      "Ġsplit": 3653,
      "fat": 3654,
      "Ġentry": 3655,
      "Ġwashington": 3656,
      "Ġkiss": 3657,
      "Ġdrivers": 3658,
      "Ġiv": 3659,
      "Ġplease": 3660,
      "Ġfa": 3661,
      "Ġpotassium": 3662,
      "Ġdelete": 3663,
      "Ġinstruct": 3664,
      "Ġwedding": 3665,
      "Ġnamed": 3666,
      "Ġchest": 3667,
      "Ġsummary": 3668,
      "Ġrib": 3669,
      "Ġplate": 3670,
      "Ġkilog": 3671,
      "Ġtall": 3672,
      "Ġnintendo": 3673,
      "Ġunlock": 3674,
      "Ġnecessary": 3675,
      "ucks": 3676,
      "atives": 3677,
      "Ġmovies": 3678,
      "Ġapproved": 3679,
      "Ġexamples": 3680,
      "umps": 3681,
      "Ġextreme": 3682,
      "%.": 3683,
      "va": 3684,
      "Ġtools": 3685,
      "ker": 3686,
      "Ġlines": 3687,
      "Ġunits": 3688,
      "Ġlock": 3689,
      "Ġtaste": 3690,
      "Ġindust": 3691,
      "Ġabsor": 3692,
      "Ġsolid": 3693,
      "Ġfans": 3694,
      "atively": 3695,
      "Ġtwins": 3696,
      "Ġsea": 3697,
      "Ġplat": 3698,
      "mb": 3699,
      "berry": 3700,
      "Ġsymbol": 3701,
      "Ġintrodu": 3702,
      "uce": 3703,
      "bar": 3704,
      "Ġwalking": 3705,
      "Ġsolution": 3706,
      "cin": 3707,
      "Ġtissue": 3708,
      "pot": 3709,
      "32": 3710,
      "Ġdischarge": 3711,
      "Ġelement": 3712,
      "Ġpayments": 3713,
      "Ġsat": 3714,
      "aging": 3715,
      "Ġbenefit": 3716,
      "ica": 3717,
      "Ġenjoy": 3718,
      "Ġrob": 3719,
      "zer": 3720,
      "Ġunemployment": 3721,
      "Ġuber": 3722,
      "Ġvarious": 3723,
      "Ġmine": 3724,
      "Ġdu": 3725,
      "Ġtag": 3726,
      "Ġprint": 3727,
      "Ġ75": 3728,
      "itary": 3729,
      "omb": 3730,
      "ancing": 3731,
      "Ġjohn": 3732,
      "Ġbrows": 3733,
      "Ġmanufacture": 3734,
      "Ġrain": 3735,
      "Ġlemon": 3736,
      "Ġstra": 3737,
      "Ġconnected": 3738,
      "Ġmattress": 3739,
      "Ġparents": 3740,
      "Ġcounter": 3741,
      "Ġcompared": 3742,
      "row": 3743,
      "atically": 3744,
      "Ġvaries": 3745,
      "ott": 3746,
      "Ġreported": 3747,
      "Ġproof": 3748,
      "Ġequation": 3749,
      "Ġnutrients": 3750,
      "77": 3751,
      "Ġtub": 3752,
      "Ġny": 3753,
      "Ġswimming": 3754,
      "Ġcame": 3755,
      "mark": 3756,
      "Ġpolice": 3757,
      "iff": 3758,
      "Ġhighly": 3759,
      "Ġcult": 3760,
      "Ġtow": 3761,
      "Ġyourself": 3762,
      "Ġ360": 3763,
      "Ġmeter": 3764,
      "ban": 3765,
      "Ġlatin": 3766,
      "ude": 3767,
      "Ġheavy": 3768,
      "Ġlymph": 3769,
      "Ġsupple": 3770,
      "Ġrole": 3771,
      "Ġdesk": 3772,
      "ement": 3773,
      "xi": 3774,
      "Ġinfo": 3775,
      "Ġeast": 3776,
      "Ġbeaut": 3777,
      "Ġflav": 3778,
      "Ġinflamm": 3779,
      "Ġlaws": 3780,
      "Ġcanadian": 3781,
      "ensity": 3782,
      "Ġswelling": 3783,
      "Ġbackground": 3784,
      "Ġmachine": 3785,
      "Ġsecre": 3786,
      "Ġbeg": 3787,
      "Ġairport": 3788,
      "Ġpowder": 3789,
      "mic": 3790,
      "):": 3791,
      "iest": 3792,
      "Ġmoist": 3793,
      "ste": 3794,
      "Ġyah": 3795,
      "nection": 3796,
      "Ġgross": 3797,
      "Ġange": 3798,
      "Ġsignificant": 3799,
      "aur": 3800,
      "inter": 3801,
      "ought": 3802,
      "kn": 3803,
      "pass": 3804,
      "Ġways": 3805,
      "Ġketo": 3806,
      "otic": 3807,
      "Ġtrees": 3808,
      "lished": 3809,
      "Ġion": 3810,
      "Ġperoxide": 3811,
      "look": 3812,
      "Ġdating": 3813,
      "Ġquant": 3814,
      "Ġengland": 3815,
      "from": 3816,
      "Ġgeor": 3817,
      "Ġol": 3818,
      "Ġfut": 3819,
      "Ġ99": 3820,
      "Ġdairy": 3821,
      "Ġholiday": 3822,
      "Ġtraditional": 3823,
      "chat": 3824,
      "Ġstands": 3825,
      "Ġissues": 3826,
      "Ġfill": 3827,
      "Ġacids": 3828,
      "hour": 3829,
      "Ġgift": 3830,
      "Ġsuggest": 3831,
      "Ġproced": 3832,
      "yroid": 3833,
      "Ġwifi": 3834,
      "pes": 3835,
      "ondon": 3836,
      "nite": 3837,
      "Ġdem": 3838,
      "Ġss": 3839,
      "ee": 3840,
      "aving": 3841,
      "fo": 3842,
      "Ġconnection": 3843,
      "Ġstarts": 3844,
      "Ġfurther": 3845,
      "28": 3846,
      "Ġnation": 3847,
      "Ġfuel": 3848,
      "fc": 3849,
      "Ġtons": 3850,
      "55": 3851,
      "Ġtown": 3852,
      "ficient": 3853,
      "Ġafrica": 3854,
      "Ġnaturally": 3855,
      "Ġupon": 3856,
      "Ġhyper": 3857,
      "Ġcompanies": 3858,
      "Ġarm": 3859,
      "Ġjoint": 3860,
      "Ġec": 3861,
      "Ġdepartment": 3862,
      "Ġconsists": 3863,
      "works": 3864,
      "ky": 3865,
      "Ġvalues": 3866,
      "Ġvoice": 3867,
      "Ġpoisonous": 3868,
      "lc": 3869,
      "Ġpremium": 3870,
      "ying": 3871,
      "room": 3872,
      "Ġcombination": 3873,
      "bor": 3874,
      "Ġexam": 3875,
      "Ġrestore": 3876,
      "Ġsword": 3877,
      "Ġ2016": 3878,
      "Ġperformance": 3879,
      "sol": 3880,
      "Ġhon": 3881,
      "Ġunique": 3882,
      "Ġmoder": 3883,
      "acing": 3884,
      "Ġdrops": 3885,
      "Ġinch": 3886,
      "Ġnative": 3887,
      "ras": 3888,
      "Ġbuilding": 3889,
      "Ġalive": 3890,
      "Ġlondon": 3891,
      "Ġcore": 3892,
      "Ġdates": 3893,
      "Ġquite": 3894,
      "water": 3895,
      "lets": 3896,
      "ota": 3897,
      "Ġgm": 3898,
      "za": 3899,
      "Ġtrip": 3900,
      "Ġinteractions": 3901,
      "Ġ37": 3902,
      "Ġcoll": 3903,
      "idents": 3904,
      "Ġcooking": 3905,
      "Ġgroups": 3906,
      "Ġrules": 3907,
      "ony": 3908,
      "enger": 3909,
      "Ġadap": 3910,
      "Ġ48": 3911,
      "Ġast": 3912,
      "Ġnort": 3913,
      "ipation": 3914,
      "estern": 3915,
      "Ġspan": 3916,
      "Ġconsult": 3917,
      "Ġload": 3918,
      "Ġmom": 3919,
      "allow": 3920,
      "Ġnurs": 3921,
      "Ġoils": 3922,
      "Ġmini": 3923,
      "Ġtool": 3924,
      "ado": 3925,
      "olf": 3926,
      "gers": 3927,
      "Ġbond": 3928,
      "ipping": 3929,
      "Ġshield": 3930,
      "oses": 3931,
      "Ġexplan": 3932,
      "Ġlun": 3933,
      "Ġreli": 3934,
      "imet": 3935,
      "Ġfeature": 3936,
      "Ġvehicles": 3937,
      "Ġfair": 3938,
      "Ġgc": 3939,
      "Ġfunds": 3940,
      "oul": 3941,
      "Ġtract": 3942,
      "rof": 3943,
      "Ġimplant": 3944,
      "Ġpm": 3945,
      "Ġjer": 3946,
      "Ġfortnite": 3947,
      "Ġgrand": 3948,
      "Ġstraight": 3949,
      "ara": 3950,
      "Ġseconds": 3951,
      "Ġnit": 3952,
      "Ġexecut": 3953,
      "Ġelena": 3954,
      "pers": 3955,
      "Ġsan": 3956,
      "Ġcas": 3957,
      "Ġyahoo": 3958,
      "Ġves": 3959,
      "Ġbags": 3960,
      "ray": 3961,
      "Ġdose": 3962,
      "Ġhear": 3963,
      "Ġmoles": 3964,
      "Ġactual": 3965,
      "Ġrespect": 3966,
      "Ġgree": 3967,
      "Ġmexico": 3968,
      "Ġsizes": 3969,
      "Ġpaint": 3970,
      "Ġheld": 3971,
      "urse": 3972,
      "ored": 3973,
      "Ġshell": 3974,
      "Ġradi": 3975,
      "Ġunion": 3976,
      "Ġflag": 3977,
      "Ġincreases": 3978,
      "istic": 3979,
      "Ġprefer": 3980,
      "Ġteacher": 3981,
      "Ġpotential": 3982,
      "Ġyog": 3983,
      "Ġcele": 3984,
      "Ġlibrary": 3985,
      "Ġstructure": 3986,
      "Ġhen": 3987,
      "Ġsubtract": 3988,
      "estic": 3989,
      "Ġteaspoons": 3990,
      "Ġpizz": 3991,
      "ibution": 3992,
      "300": 3993,
      "44": 3994,
      "lla": 3995,
      "Ġpure": 3996,
      "Ġconvers": 3997,
      "Ġbeer": 3998,
      "Ġsale": 3999,
      "Ġprop": 4000,
      "Ġneck": 4001,
      "Ġcry": 4002,
      "Ġpath": 4003,
      "hal": 4004,
      "Ġmodels": 4005,
      "Ġschools": 4006,
      "llent": 4007,
      "Ġexplanation": 4008,
      "ture": 4009,
      "Ġtelevision": 4010,
      "Ġdamon": 4011,
      "Ġpull": 4012,
      "osphere": 4013,
      "Ġcustomers": 4014,
      "den": 4015,
      "Ġflavor": 4016,
      "Ġfinally": 4017,
      "Ġtas": 4018,
      "Ġvision": 4019,
      "chan": 4020,
      "Ġconstr": 4021,
      "Ġdigital": 4022,
      "Ġheal": 4023,
      "Ġlatest": 4024,
      "ael": 4025,
      "Ġexplo": 4026,
      "Ġsteel": 4027,
      "conut": 4028,
      "Ġshape": 4029,
      "Ġstarted": 4030,
      "Ġfavor": 4031,
      "empt": 4032,
      "Ġregistered": 4033,
      "Ġbache": 4034,
      "Ġdivor": 4035,
      "Ġreasons": 4036,
      "Ġmaster": 4037,
      "Ġsheet": 4038,
      "Ġgluc": 4039,
      "Ġpermanent": 4040,
      "Ġteaspoon": 4041,
      "Ġinstit": 4042,
      "Ġpractice": 4043,
      "Ġlisted": 4044,
      "Ġdomain": 4045,
      "Ġdecl": 4046,
      "Ġfather": 4047,
      "Ġresour": 4048,
      "Ġ#": 4049,
      "loc": 4050,
      "Ġlas": 4051,
      "Ġhydro": 4052,
      "sm": 4053,
      "check": 4054,
      "Ġflex": 4055,
      "illed": 4056,
      "Ġhands": 4057,
      "Ġrh": 4058,
      "Ġformer": 4059,
      "Ġconfirm": 4060,
      "sapp": 4061,
      "df": 4062,
      "Ġjoin": 4063,
      "Ġready": 4064,
      "Ġbreath": 4065,
      "xiety": 4066,
      "nausea": 4067,
      "Ġreturns": 4068,
      "weight": 4069,
      "izziness": 4070,
      "Ġ300": 4071,
      "Ġreceived": 4072,
      "gl": 4073,
      "dl": 4074,
      "kg": 4075,
      "Ġmatch": 4076,
      "Ġlake": 4077,
      "Ġrecy": 4078,
      "Ġbrands": 4079,
      "Ġzo": 4080,
      "Ġrecently": 4081,
      "Ġstudent": 4082,
      "Ġdil": 4083,
      "Ġgel": 4084,
      "Ġcustomer": 4085,
      "Ġvegetables": 4086,
      "Ġreferred": 4087,
      "uation": 4088,
      "Ġcarri": 4089,
      "Ġqualify": 4090,
      "Ġregard": 4091,
      "Ġdrinks": 4092,
      "Ġones": 4093,
      "sey": 4094,
      "Ġmovement": 4095,
      "âĢĿ.": 4096,
      "Ġsupply": 4097,
      "Ġwheat": 4098,
      "Ġobs": 4099,
      "Ġric": 4100,
      "izing": 4101,
      "Ġcig": 4102,
      "mar": 4103,
      "Ġemerg": 4104,
      "Ġsout": 4105,
      "Ġseat": 4106,
      "Ġsmell": 4107,
      "Ġscreens": 4108,
      "umin": 4109,
      "ivil": 4110,
      "Ġfal": 4111,
      "unately": 4112,
      "Ġnuts": 4113,
      "Ġbrothers": 4114,
      "ulated": 4115,
      "Ġwheel": 4116,
      "Ġcramps": 4117,
      "Ġsummer": 4118,
      "Ġelse": 4119,
      "mmhg": 4120,
      "Ġdigestive": 4121,
      "unt": 4122,
      "Ġestimated": 4123,
      "Ġnearly": 4124,
      "âĢ¦": 4125,
      "Ġft": 4126,
      "Ġanyone": 4127,
      "Ġontar": 4128,
      "Ġeverything": 4129,
      "Ġfollowed": 4130,
      "Ġgerman": 4131,
      "Ġord": 4132,
      "Ġretirement": 4133,
      "lin": 4134,
      "Ġmb": 4135,
      "Ġontario": 4136,
      "ku": 4137,
      "istance": 4138,
      "Ġdispl": 4139,
      "Ġbattle": 4140,
      "Ġtrust": 4141,
      "burn": 4142,
      "fol": 4143,
      "Ġmeal": 4144,
      "Ġgear": 4145,
      "wise": 4146,
      "Ġsnapchat": 4147,
      "Ġveter": 4148,
      "Ġabsol": 4149,
      "swe": 4150,
      "Ġscroll": 4151,
      "26": 4152,
      "lier": 4153,
      "uals": 4154,
      "Ġcere": 4155,
      "Ġens": 4156,
      "Ġdollar": 4157,
      "Ġsuit": 4158,
      "Ġprices": 4159,
      "riend": 4160,
      "Ġalex": 4161,
      "Ġ65": 4162,
      "nee": 4163,
      "Ġtechnology": 4164,
      "Ġmi": 4165,
      "Ġreaction": 4166,
      "Ġsupposed": 4167,
      "Ġapplications": 4168,
      "Ġradio": 4169,
      "pir": 4170,
      "ann": 4171,
      "Ġtempor": 4172,
      "Ġdesktop": 4173,
      "Ġgiving": 4174,
      "also": 4175,
      "Ġratio": 4176,
      "Ġslo": 4177,
      "Ġwhatsapp": 4178,
      "Ġelectricity": 4179,
      "Ġsubstance": 4180,
      "Ġcart": 4181,
      "Ġtalk": 4182,
      "Ġconcent": 4183,
      "Ġpron": 4184,
      "Ġoral": 4185,
      "Ġmor": 4186,
      "Ġowned": 4187,
      "Ġinstructions": 4188,
      "Ġrap": 4189,
      "Ġautomatically": 4190,
      "lete": 4191,
      "Ġimmediately": 4192,
      "Ġfight": 4193,
      "Ġlb": 4194,
      "Ġfocus": 4195,
      "usion": 4196,
      "aland": 4197,
      "Ġabsolute": 4198,
      "ania": 4199,
      "Ġchlor": 4200,
      "Ġdeliver": 4201,
      "'.": 4202,
      "Ġchanged": 4203,
      "Ġgard": 4204,
      "emption": 4205,
      "Ġbehav": 4206,
      "Ġmap": 4207,
      "Ġlegs": 4208,
      "osite": 4209,
      "Ġexcellent": 4210,
      "Ġbrowser": 4211,
      "Ġms": 4212,
      "Ġrepublic": 4213,
      "Ġemployee": 4214,
      "vol": 4215,
      "Ġrot": 4216,
      "Ġglucose": 4217,
      "Ġgreater": 4218,
      "Ġpizza": 4219,
      "Ġvaccine": 4220,
      "Ġbeef": 4221,
      "Ġgrade": 4222,
      "ession": 4223,
      "Ġpurpose": 4224,
      "Ġriver": 4225,
      "Ġcoconut": 4226,
      "count": 4227,
      "Ġul": 4228,
      "Ġmut": 4229,
      "Ġminecraft": 4230,
      "Ġrab": 4231,
      "ros": 4232,
      "Ġdetermine": 4233,
      "Ġpul": 4234,
      "Ġmit": 4235,
      "Ġbecame": 4236,
      "Ġsetup": 4237,
      "Ġdiagn": 4238,
      "Ġwish": 4239,
      "neys": 4240,
      "Ġchance": 4241,
      "Ġissued": 4242,
      "Ġhu": 4243,
      "Ġweather": 4244,
      "cers": 4245,
      "Ġinternal": 4246,
      "Ġmountain": 4247,
      "Ġoce": 4248,
      "Ġna": 4249,
      "Ġseasons": 4250,
      "sels": 4251,
      "Ġtrig": 4252,
      "Ġprotection": 4253,
      "Ġaqu": 4254,
      "Ġauto": 4255,
      "kin": 4256,
      "Ġwis": 4257,
      "Ġneut": 4258,
      "Ġthanks": 4259,
      "Ġfrozen": 4260,
      "Ġmajority": 4261,
      "Ġmir": 4262,
      "Ġfeeding": 4263,
      "Ġmilitary": 4264,
      "Ġuter": 4265,
      "Ġmostly": 4266,
      "Ġdied": 4267,
      "Ġplaying": 4268,
      "Ġclaims": 4269,
      "Ġmonthly": 4270,
      "Ġaccurate": 4271,
      "ological": 4272,
      "Ġtender": 4273,
      "Ġhorse": 4274,
      "Ġnfl": 4275,
      "Ġpackage": 4276,
      "Ġremember": 4277,
      "illa": 4278,
      "Ġken": 4279,
      "Ġhappen": 4280,
      "Ġbegins": 4281,
      "ek": 4282,
      "Ġjump": 4283,
      "Ġplans": 4284,
      "Ġadvis": 4285,
      "Ġsore": 4286,
      "Ġ180": 4287,
      "Ġatom": 4288,
      "Ġtransport": 4289,
      "lines": 4290,
      "Ġphones": 4291,
      "gans": 4292,
      "Ġcertified": 4293,
      "esium": 4294,
      "Ġfund": 4295,
      "Ġvict": 4296,
      "Ġbooks": 4297,
      "Ġbread": 4298,
      "Ġlaunch": 4299,
      "dis": 4300,
      "Ġaudio": 4301,
      "Ġcolors": 4302,
      "urb": 4303,
      "Ġnotification": 4304,
      "Ġbatteries": 4305,
      "Ġbay": 4306,
      "Ġvs": 4307,
      "Ġscan": 4308,
      "Ġheadphones": 4309,
      "Ġsides": 4310,
      "Ġimpact": 4311,
      "Ġspring": 4312,
      "Ġchronic": 4313,
      "Ġfloor": 4314,
      "Ġhormone": 4315,
      "Ġber": 4316,
      "Ġlinked": 4317,
      "Ġattract": 4318,
      "Ġlocations": 4319,
      "Ġprovider": 4320,
      "Ġtarget": 4321,
      "Ġshar": 4322,
      "Ġrecent": 4323,
      "Ġguide": 4324,
      "ias": 4325,
      "Ġzealand": 4326,
      "Ġtablets": 4327,
      "cies": 4328,
      "Ġfailure": 4329,
      "Ġcombinations": 4330,
      "Ġstation": 4331,
      "Ġevents": 4332,
      "37": 4333,
      "Ġdisability": 4334,
      "Ġcitizen": 4335,
      "Ġarab": 4336,
      "Ġexactly": 4337,
      "36": 4338,
      "oming": 4339,
      "Ġapart": 4340,
      "Ġchips": 4341,
      "entially": 4342,
      "Ġsperm": 4343,
      "Ġinflammation": 4344,
      "list": 4345,
      "Ġestab": 4346,
      "Ġissue": 4347,
      "Ġshamp": 4348,
      "Ġdatab": 4349,
      "omin": 4350,
      "Ġjour": 4351,
      "Ġresident": 4352,
      "clo": 4353,
      "ji": 4354,
      "Ġram": 4355,
      "Ġsch": 4356,
      "Ġprocessing": 4357,
      "Ġquarter": 4358,
      "tv": 4359,
      "Ġcompound": 4360,
      "aret": 4361,
      "Ġwestern": 4362,
      "Ġweap": 4363,
      "itely": 4364,
      "Ġtire": 4365,
      "Ġreven": 4366,
      "Ġboots": 4367,
      "ani": 4368,
      "Ġconcer": 4369,
      "Ġrecip": 4370,
      "Ġdistrict": 4371,
      "roke": 4372,
      "Ġglobal": 4373,
      "sign": 4374,
      "Ġrid": 4375,
      "Ġadjust": 4376,
      "Ġfuture": 4377,
      "Ġcommer": 4378,
      "Ġbeginning": 4379,
      "Ġwrong": 4380,
      "osph": 4381,
      "Ġdecimal": 4382,
      "Ġcalculated": 4383,
      "Ġvariable": 4384,
      "Ġtooth": 4385,
      "Ġcarbohydrates": 4386,
      "Ġseparate": 4387,
      "Ġtablespoon": 4388,
      "Ġsd": 4389,
      "Ġanxiety": 4390,
      "400": 4391,
      "cg": 4392,
      "acters": 4393,
      "men": 4394,
      "Ġvolt": 4395,
      "Ġmand": 4396,
      "card": 4397,
      "feeding": 4398,
      "Ġregistration": 4399,
      "Ġformed": 4400,
      "Ġdesired": 4401,
      "Ġcharacters": 4402,
      "Ġnutrition": 4403,
      "pay": 4404,
      "Ġfox": 4405,
      "nd": 4406,
      "Ġfruits": 4407,
      "ivered": 4408,
      "fin": 4409,
      "Ġfinale": 4410,
      "Ġharmful": 4411,
      "Ġdisorder": 4412,
      "Ġofficially": 4413,
      "Ġdivision": 4414,
      "ket": 4415,
      "Ġoven": 4416,
      "Ġsets": 4417,
      "kary": 4418,
      "Ġarth": 4419,
      "Ġfriendly": 4420,
      "Ġhaw": 4421,
      "Ġguy": 4422,
      "Ġowners": 4423,
      "Ġcelebr": 4424,
      "patitis": 4425,
      "Ġchain": 4426,
      "Ġorganis": 4427,
      "Ġchampionship": 4428,
      "Ġbars": 4429,
      "Ġcontag": 4430,
      "Ġarch": 4431,
      "crete": 4432,
      "Ġaim": 4433,
      "adder": 4434,
      "Ġbehind": 4435,
      "Ġtreated": 4436,
      "cil": 4437,
      "Ġwaves": 4438,
      "Ġjew": 4439,
      "Ġfluids": 4440,
      "Ġhem": 4441,
      "Ġscene": 4442,
      "nal": 4443,
      "ternal": 4444,
      "Ġcontagious": 4445,
      "Ġspir": 4446,
      "part": 4447,
      "Ġgraph": 4448,
      "aked": 4449,
      "Ġclassic": 4450,
      "Ġvaginal": 4451,
      "Ġplug": 4452,
      "ferences": 4453,
      "Ġsilver": 4454,
      "rant": 4455,
      "ini": 4456,
      "Ġbroken": 4457,
      "Ġcausing": 4458,
      "Ġstreet": 4459,
      "gia": 4460,
      "Ġanalyst": 4461,
      "inch": 4462,
      "ritis": 4463,
      "88": 4464,
      "Ġmeters": 4465,
      "Ġremote": 4466,
      "Ġplatform": 4467,
      "itors": 4468,
      "Ġgb": 4469,
      "regular": 4470,
      "Ġtrimes": 4471,
      "Ġinitial": 4472,
      "was": 4473,
      "Ġcommunity": 4474,
      "Ġindependent": 4475,
      "ality": 4476,
      "Ġfle": 4477,
      "Ġconstant": 4478,
      "fa": 4479,
      "awn": 4480,
      "Ġfab": 4481,
      "Ġcalend": 4482,
      "fish": 4483,
      "apor": 4484,
      "Ġlanguages": 4485,
      "fully": 4486,
      "Ġgermany": 4487,
      "150": 4488,
      "bu": 4489,
      "she": 4490,
      "ston": 4491,
      "Ġrefrigerator": 4492,
      "itical": 4493,
      "Ġexpected": 4494,
      "Ġconstit": 4495,
      "tion": 4496,
      "ratio": 4497,
      "Ġnothing": 4498,
      "Ġlitres": 4499,
      "Ġearnings": 4500,
      "aughter": 4501,
      "Ġgi": 4502,
      "Ġemot": 4503,
      "Ġusage": 4504,
      "Ġarg": 4505,
      "Ġpatter": 4506,
      "Ġprot": 4507,
      "Ġchew": 4508,
      "Ġbelieve": 4509,
      "Ġadject": 4510,
      "Ġprograms": 4511,
      "Ġacne": 4512,
      "Ġsoil": 4513,
      "Ġsimpl": 4514,
      "Ġscal": 4515,
      "Ġwet": 4516,
      "Ġlip": 4517,
      "Ġzone": 4518,
      "Ġcharged": 4519,
      "Ġprinc": 4520,
      "chers": 4521,
      "Ġtesting": 4522,
      "alled": 4523,
      "cons": 4524,
      "Ġpictures": 4525,
      "Ġire": 4526,
      "Ġkeyboard": 4527,
      "ww": 4528,
      "Ġcran": 4529,
      "Ġcancel": 4530,
      "Ġunfort": 4531,
      "Ġrevealed": 4532,
      "rim": 4533,
      "Ġlights": 4534,
      "wide": 4535,
      "Ġham": 4536,
      "equ": 4537,
      "Ġbecomes": 4538,
      "ampire": 4539,
      "Ġmetab": 4540,
      "Ġelectron": 4541,
      "Ġdomestic": 4542,
      "Ġeuropean": 4543,
      "76": 4544,
      "igate": 4545,
      "oh": 4546,
      "Ġexclus": 4547,
      "Ġzinc": 4548,
      "Ġmol": 4549,
      "Ġrepe": 4550,
      "Ġ140": 4551,
      "Ġestate": 4552,
      "Ġfigure": 4553,
      "Ġ2015": 4554,
      "ricts": 4555,
      "Ġinflu": 4556,
      "pan": 4557,
      "Ġnature": 4558,
      "Ġburning": 4559,
      "with": 4560,
      "Ġrating": 4561,
      "Ġ400": 4562,
      "38": 4563,
      "Ġran": 4564,
      "Ġgallon": 4565,
      "Ġoats": 4566,
      "Ġnurse": 4567,
      "Ġclin": 4568,
      "Ġcalculator": 4569,
      "inate": 4570,
      "ledge": 4571,
      "Ġireland": 4572,
      "Ġow": 4573,
      "Ġkore": 4574,
      "Ġworkout": 4575,
      "Ġkidneys": 4576,
      "Ġoccas": 4577,
      "bed": 4578,
      "ja": 4579,
      "Ġchap": 4580,
      "Ġclot": 4581,
      "Ġbachelor": 4582,
      "Ġcivil": 4583,
      "Ġactivities": 4584,
      "Ġnouns": 4585,
      "Ġturkey": 4586,
      "Ġnorthern": 4587,
      "norm": 4588,
      "Ġsec": 4589,
      "Ġdies": 4590,
      "Ġthurs": 4591,
      "Ġindividuals": 4592,
      "Ġnas": 4593,
      "Ġproperly": 4594,
      "ago": 4595,
      "uble": 4596,
      "used": 4597,
      "Ġcomplex": 4598,
      "Ġdisco": 4599,
      "Ġrestaur": 4600,
      "pn": 4601,
      "round": 4602,
      "Ġmoon": 4603,
      "Ġretail": 4604,
      "Ġactor": 4605,
      "Ġcommunication": 4606,
      "wa": 4607,
      "Ġtum": 4608,
      "Ġprescription": 4609,
      "Ġmeasurement": 4610,
      "Ġminds": 4611,
      "Ġevidence": 4612,
      "Ġfasting": 4613,
      "Ġbirds": 4614,
      "Ġtues": 4615,
      "Ġkept": 4616,
      "Ġtor": 4617,
      "Ġschedule": 4618,
      "inct": 4619,
      "Ġspend": 4620,
      "Ġtablet": 4621,
      "Ġspok": 4622,
      "Ġshampoo": 4623,
      "Ġoriginally": 4624,
      "Ġcurren": 4625,
      "umn": 4626,
      "vit": 4627,
      "selves": 4628,
      "imeters": 4629,
      "Ġtires": 4630,
      "Ġniger": 4631,
      "Ġhp": 4632,
      "Ġgh": 4633,
      "Ġprincip": 4634,
      "Ġanal": 4635,
      "Ġresol": 4636,
      "Ġbull": 4637,
      "Ġviol": 4638,
      "Ġtan": 4639,
      "Ġ196": 4640,
      "Ġjapanese": 4641,
      "cop": 4642,
      "Ġexpenses": 4643,
      "Ġsaturday": 4644,
      "48": 4645,
      "Ġartic": 4646,
      "ki": 4647,
      "sized": 4648,
      "Ġtrade": 4649,
      "abled": 4650,
      "Ġdatabase": 4651,
      "Ġbonds": 4652,
      "Ġslic": 4653,
      "Ġthous": 4654,
      "Ġdisplays": 4655,
      "Ġcorpor": 4656,
      "Ġextremely": 4657,
      "Ġyard": 4658,
      "Ġmanufactured": 4659,
      "Ġshut": 4660,
      "Ġserve": 4661,
      "ogen": 4662,
      "active": 4663,
      "fers": 4664,
      "Ġprofit": 4665,
      "data": 4666,
      "Ġcareer": 4667,
      "Ġbanned": 4668,
      "Ġrespon": 4669,
      "Ġhurt": 4670,
      "Ġalbum": 4671,
      "Ġlungs": 4672,
      "door": 4673,
      "Ġcentre": 4674,
      "Ġagent": 4675,
      "Ġlack": 4676,
      "Ġoutlook": 4677,
      "Ġwednes": 4678,
      "spe": 4679,
      "Ġship": 4680,
      "Ġapplied": 4681,
      "Ġwaterproof": 4682,
      "Ġmur": 4683,
      "ctors": 4684,
      "Ġcompleted": 4685,
      "95": 4686,
      "iter": 4687,
      "Ġunderstand": 4688,
      "Ġpanel": 4689,
      "Ġpoor": 4690,
      "Ġpasta": 4691,
      "Ġmoving": 4692,
      "Ġtrimester": 4693,
      "Ġspotting": 4694,
      "Ġrow": 4695,
      "bur": 4696,
      "Ġstone": 4697,
      "Ġkilogram": 4698,
      "Ġnerv": 4699,
      "Ġ55": 4700,
      "Ġsources": 4701,
      "uous": 4702,
      "acity": 4703,
      "Ġredemption": 4704,
      "ician": 4705,
      "Ġhall": 4706,
      "Ġlasts": 4707,
      "Ġoutput": 4708,
      "turn": 4709,
      "Ġaccepted": 4710,
      "outs": 4711,
      "Ġranges": 4712,
      "but": 4713,
      "Ġos": 4714,
      "Ġteams": 4715,
      "Ġsmooth": 4716,
      "iat": 4717,
      "Ġouter": 4718,
      "Ġlives": 4719,
      "Ġbreastfeeding": 4720,
      "Ġfel": 4721,
      "Ġcarol": 4722,
      "Ġillness": 4723,
      "Ġcomponents": 4724,
      "Ġcatch": 4725,
      "Ġprocedure": 4726,
      "idays": 4727,
      "Ġlayer": 4728,
      "Ġnervous": 4729,
      "Ġseats": 4730,
      "Ġconsume": 4731,
      "Ġdub": 4732,
      "Ġpharm": 4733,
      "Ġearlier": 4734,
      ";',": 4735,
      "Ġcot": 4736,
      "Ġnotes": 4737,
      "agon": 4738,
      "Ġpolicy": 4739,
      "son": 4740,
      "Ġmr": 4741,
      "Ġfer": 4742,
      "Ġhom": 4743,
      "lar": 4744,
      "osition": 4745,
      "Ġdistricts": 4746,
      "Ġrespir": 4747,
      "Ġly": 4748,
      "Ġlord": 4749,
      "Ġorganic": 4750,
      "Ġoperating": 4751,
      "oster": 4752,
      "Ġeveryone": 4753,
      "Ġreading": 4754,
      "Ġlogin": 4755,
      "Ġthrones": 4756,
      "Ġtomato": 4757,
      "Ġpit": 4758,
      "ower": 4759,
      "Ġcredits": 4760,
      "ipped": 4761,
      "Ġsulf": 4762,
      "Ġthumb": 4763,
      "season": 4764,
      "Ġminor": 4765,
      "Ġsecret": 4766,
      "make": 4767,
      "cluding": 4768,
      "Ġflights": 4769,
      "Ġunfortunately": 4770,
      "ighter": 4771,
      "Ġlooks": 4772,
      "Ġears": 4773,
      "Ġworker": 4774,
      "Ġhoney": 4775,
      "Ġduty": 4776,
      "Ġthursday": 4777,
      "Ġmechan": 4778,
      "Ġinstant": 4779,
      "oint": 4780,
      "Ġchecks": 4781,
      "iang": 4782,
      "ync": 4783,
      "Ġprovided": 4784,
      "Ġmedicare": 4785,
      "Ġpun": 4786,
      "Ġmagnesium": 4787,
      "Ġmention": 4788,
      "Ġkids": 4789,
      "Ġaid": 4790,
      "Ġmonitor": 4791,
      "Ġhepatitis": 4792,
      "Ġmeals": 4793,
      "Ġdefinitely": 4794,
      "Ġsyndr": 4795,
      "Ġasked": 4796,
      "Ġbelong": 4797,
      "Ġpaste": 4798,
      "Ġfinger": 4799,
      "Ġsty": 4800,
      "Ġparent": 4801,
      "pts": 4802,
      "Ġexchange": 4803,
      "screen": 4804,
      "Ġ38": 4805,
      "Ġbor": 4806,
      "ady": 4807,
      "Ġcd": 4808,
      "Ġsed": 4809,
      "Ġnursing": 4810,
      "Ġboost": 4811,
      "Ġinsert": 4812,
      "Ġlou": 4813,
      "uts": 4814,
      "Ġdirection": 4815,
      "Ġtuesday": 4816,
      "cule": 4817,
      "Ġdress": 4818,
      "verages": 4819,
      "dered": 4820,
      "Ġcolour": 4821,
      "Ġwrite": 4822,
      "Ġvampire": 4823,
      "Ġwednesday": 4824,
      "Ġtight": 4825,
      "Ġdancing": 4826,
      "Ġfrance": 4827,
      "Ġraise": 4828,
      "Ġhaz": 4829,
      "Ġletters": 4830,
      "Ġgreek": 4831,
      "Ġocean": 4832,
      "ov": 4833,
      "Ġsister": 4834,
      "inese": 4835,
      "orders": 4836,
      "oked": 4837,
      "Ġdivorce": 4838,
      "Ġbanks": 4839,
      "Ġcp": 4840,
      "Ġwatts": 4841,
      "Ġsms": 4842,
      "hot": 4843,
      "Ġgro": 4844,
      "Ġsuf": 4845,
      "Ġcrack": 4846,
      "Ġtherapy": 4847,
      "days": 4848,
      "Ġbell": 4849,
      "Ġcomfortable": 4850,
      "ĠÃĹ": 4851,
      "Ġhous": 4852,
      "Ġappet": 4853,
      "Ġadding": 4854,
      "Ġvirginia": 4855,
      "Ġemergency": 4856,
      "tw": 4857,
      "Ġcru": 4858,
      "Ġsaved": 4859,
      "Ġinjury": 4860,
      "igrams": 4861,
      "Ġbranch": 4862,
      "hi": 4863,
      "hood": 4864,
      "Ġ.',": 4865,
      "Ġdried": 4866,
      "Ġflash": 4867,
      "Ġreset": 4868,
      "unction": 4869,
      "Ġframe": 4870,
      "Ġvent": 4871,
      "inder": 4872,
      "Ġsyndrome": 4873,
      "Ġruss": 4874,
      "Ġidentity": 4875,
      "Ġsensitive": 4876,
      "Ġgarlic": 4877,
      "Ġnails": 4878,
      "Ġfet": 4879,
      "after": 4880,
      "Ġdream": 4881,
      "Ġphosph": 4882,
      "Ġstages": 4883,
      "Ġkick": 4884,
      "Ġeasier": 4885,
      "ictionary": 4886,
      "hand": 4887,
      "Ġyield": 4888,
      "odies": 4889,
      "sect": 4890,
      "Ġscale": 4891,
      "Ġbreed": 4892,
      "oz": 4893,
      "ville": 4894,
      "Ġspin": 4895,
      "Ġhealthcare": 4896,
      "Ġassum": 4897,
      "Ġdeficiency": 4898,
      "Ġ250": 4899,
      "Ġcontacts": 4900,
      "Ġdeveloped": 4901,
      "evee": 4902,
      "Ġparticip": 4903,
      "Ġsamp": 4904,
      "berries": 4905,
      "Ġsleeping": 4906,
      "har": 4907,
      "ada": 4908,
      "Ġket": 4909,
      "Ġwriting": 4910,
      "mus": 4911,
      "Ġdetermined": 4912,
      "Ġcents": 4913,
      "Ġnodes": 4914,
      "Ġdeposit": 4915,
      "Ġsusp": 4916,
      "Ġspanish": 4917,
      "Ġds": 4918,
      "uth": 4919,
      "Ġmembr": 4920,
      "Ġaustralian": 4921,
      "Ġpel": 4922,
      "grade": 4923,
      "Ġba": 4924,
      "ydia": 4925,
      "Ġvirt": 4926,
      "Ġuterus": 4927,
      "Ġnc": 4928,
      "Ġaffected": 4929,
      "Ġinvestment": 4930,
      "Ġcovers": 4931,
      "axy": 4932,
      "Ġuniversal": 4933,
      "bus": 4934,
      "Ġquad": 4935,
      "Ġrenewed": 4936,
      "Ġluck": 4937,
      "Ġ33": 4938,
      "Ġgrowing": 4939,
      "Ġtrying": 4940,
      "Ġmilligrams": 4941,
      "Ġprivacy": 4942,
      "Ġconduct": 4943,
      "band": 4944,
      "Ġpepp": 4945,
      "Ġthemselves": 4946,
      "Ġexpos": 4947,
      "brevi": 4948,
      "Ġimmune": 4949,
      "rated": 4950,
      "Ġstim": 4951,
      "je": 4952,
      "ora": 4953,
      "Ġ52": 4954,
      "Ġhappy": 4955,
      "Ġgallons": 4956,
      "Ġworse": 4957,
      "Ġbiggest": 4958,
      "Ġpuppy": 4959,
      "igation": 4960,
      "Ġchat": 4961,
      "Ġbacterial": 4962,
      "Ġemployer": 4963,
      "Ġweakness": 4964,
      "Ġshop": 4965,
      "rofen": 4966,
      "Ġeevee": 4967,
      "Ġtemperatures": 4968,
      "Ġrect": 4969,
      "Ġrise": 4970,
      "Ġtrail": 4971,
      "Ġupload": 4972,
      "Ġabdominal": 4973,
      "ria": 4974,
      "Ġexperien": 4975,
      "Ġleading": 4976,
      "Ġexisting": 4977,
      "Ġpremiere": 4978,
      "Ġthyroid": 4979,
      "Ġcolon": 4980,
      "Ġafrican": 4981,
      "washer": 4982,
      "Ġadministr": 4983,
      "Ġfalls": 4984,
      "Ġdelivered": 4985,
      "Ġengineering": 4986,
      "Ġmarks": 4987,
      "Ġkilled": 4988,
      "Ġdimensions": 4989,
      "Ġohio": 4990,
      "more": 4991,
      "Ġacce": 4992,
      "Ġtun": 4993,
      "Ġsoci": 4994,
      "Ġdeductible": 4995,
      "kal": 4996,
      "opic": 4997,
      "Ġphr": 4998,
      "Ġinterview": 4999
    },
    "merges": [
      [
        "Ġ",
        "t"
      ],
      [
        "Ġ",
        "a"
      ],
      [
        "i",
        "n"
      ],
      [
        "h",
        "e"
      ],
      [
        "r",
        "e"
      ],
      [
        "Ġ",
        "s"
      ],
      [
        "o",
        "n"
      ],
      [
        "Ġ",
        "c"
      ],
      [
        "e",
        "r"
      ],
      [
        "Ġt",
        "he"
      ],
      [
        "Ġ",
        "o"
      ],
      [
        "a",
        "t"
      ],
      [
        "Ġ",
        "b"
      ],
      [
        "a",
        "n"
      ],
      [
        "o",
        "u"
      ],
      [
        "Ġ",
        "p"
      ],
      [
        "Ġ",
        "m"
      ],
      [
        "i",
        "s"
      ],
      [
        "Ġ",
        "f"
      ],
      [
        "e",
        "s"
      ],
      [
        "Ġ",
        "w"
      ],
      [
        "e",
        "n"
      ],
      [
        "Ġ",
        "d"
      ],
      [
        "o",
        "r"
      ],
      [
        "i",
        "t"
      ],
      [
        "a",
        "l"
      ],
      [
        "Ġa",
        "n"
      ],
      [
        "Ġt",
        "o"
      ],
      [
        "Ġ",
        "in"
      ],
      [
        "a",
        "r"
      ],
      [
        "l",
        "e"
      ],
      [
        "in",
        "g"
      ],
      [
        "e",
        "d"
      ],
      [
        "i",
        "c"
      ],
      [
        "Ġ",
        "y"
      ],
      [
        "Ġo",
        "f"
      ],
      [
        "Ġan",
        "d"
      ],
      [
        "Ġ",
        "n"
      ],
      [
        "Ġ",
        "h"
      ],
      [
        "Ġy",
        "ou"
      ],
      [
        "Ġ",
        "is"
      ],
      [
        "o",
        "m"
      ],
      [
        "a",
        "s"
      ],
      [
        "Ġ",
        "l"
      ],
      [
        "o",
        "w"
      ],
      [
        "Ġ",
        "g"
      ],
      [
        "Ġ",
        "e"
      ],
      [
        "i",
        "on"
      ],
      [
        "i",
        "l"
      ],
      [
        "u",
        "s"
      ],
      [
        "e",
        "t"
      ],
      [
        "c",
        "t"
      ],
      [
        "Ġ",
        "re"
      ],
      [
        "Ġt",
        "h"
      ],
      [
        "v",
        "e"
      ],
      [
        "Ġ",
        "'"
      ],
      [
        "Ġ",
        "on"
      ],
      [
        "r",
        "o"
      ],
      [
        "en",
        "t"
      ],
      [
        "Ġa",
        "re"
      ],
      [
        "Ġf",
        "or"
      ],
      [
        "a",
        "m"
      ],
      [
        "l",
        "y"
      ],
      [
        "o",
        "t"
      ],
      [
        "a",
        "y"
      ],
      [
        "i",
        "d"
      ],
      [
        ".",
        "'"
      ],
      [
        "s",
        "t"
      ],
      [
        "Ġb",
        "e"
      ],
      [
        "i",
        "g"
      ],
      [
        "u",
        "t"
      ],
      [
        "Ġs",
        "t"
      ],
      [
        "Ġo",
        "r"
      ],
      [
        "Ġ",
        "1"
      ],
      [
        "c",
        "h"
      ],
      [
        "o",
        "l"
      ],
      [
        "u",
        "r"
      ],
      [
        "Ġ",
        "it"
      ],
      [
        "Ġ",
        "i"
      ],
      [
        "c",
        "e"
      ],
      [
        "v",
        "er"
      ],
      [
        "Ġyou",
        "r"
      ],
      [
        "u",
        "n"
      ],
      [
        "o",
        "d"
      ],
      [
        ".'",
        ","
      ],
      [
        "Ġ",
        "r"
      ],
      [
        "g",
        "e"
      ],
      [
        "a",
        "d"
      ],
      [
        "h",
        "ow"
      ],
      [
        "l",
        "l"
      ],
      [
        "i",
        "r"
      ],
      [
        "i",
        "m"
      ],
      [
        "Ġ",
        "("
      ],
      [
        ".",
        "."
      ],
      [
        "Ġ",
        "v"
      ],
      [
        "Ġd",
        "o"
      ],
      [
        "Ġc",
        "an"
      ],
      [
        "Ġ",
        "2"
      ],
      [
        "Ġa",
        "s"
      ],
      [
        "at",
        "ion"
      ],
      [
        "w",
        "h"
      ],
      [
        "Ġc",
        "on"
      ],
      [
        "it",
        "h"
      ],
      [
        "s",
        "e"
      ],
      [
        "k",
        "e"
      ],
      [
        "u",
        "m"
      ],
      [
        "u",
        "l"
      ],
      [
        "t",
        "er"
      ],
      [
        "Ġw",
        "ith"
      ],
      [
        "Ġc",
        "h"
      ],
      [
        "t",
        "h"
      ],
      [
        "Ġs",
        "e"
      ],
      [
        "a",
        "b"
      ],
      [
        "il",
        "l"
      ],
      [
        "ou",
        "n"
      ],
      [
        "Ġw",
        "h"
      ],
      [
        "a",
        "re"
      ],
      [
        "Ġd",
        "e"
      ],
      [
        "Ġth",
        "at"
      ],
      [
        "Ġ",
        "us"
      ],
      [
        "Ġf",
        "r"
      ],
      [
        "p",
        "p"
      ],
      [
        "q",
        "u"
      ],
      [
        "Ġ",
        "he"
      ],
      [
        "wh",
        "at"
      ],
      [
        "a",
        "c"
      ],
      [
        "at",
        "e"
      ],
      [
        "er",
        "s"
      ],
      [
        "ig",
        "h"
      ],
      [
        "Ġp",
        "ro"
      ],
      [
        "i",
        "es"
      ],
      [
        "Ġm",
        "o"
      ],
      [
        "l",
        "o"
      ],
      [
        "a",
        "in"
      ],
      [
        "Ġw",
        "e"
      ],
      [
        "Ġh",
        "a"
      ],
      [
        "Ġc",
        "om"
      ],
      [
        "0",
        "0"
      ],
      [
        "Ġn",
        "e"
      ],
      [
        "f",
        "e"
      ],
      [
        "Ġ",
        "j"
      ],
      [
        "Ġ",
        "k"
      ],
      [
        "t",
        "s"
      ],
      [
        "he",
        "r"
      ],
      [
        "â",
        "Ģ"
      ],
      [
        "re",
        "s"
      ],
      [
        "'",
        "s"
      ],
      [
        "Ġa",
        "t"
      ],
      [
        "i",
        "ve"
      ],
      [
        "es",
        "s"
      ],
      [
        "u",
        "p"
      ],
      [
        "Ġe",
        "x"
      ],
      [
        "es",
        "t"
      ],
      [
        "i",
        "f"
      ],
      [
        "a",
        "p"
      ],
      [
        "l",
        "d"
      ],
      [
        "Ġ",
        "le"
      ],
      [
        "o",
        "s"
      ],
      [
        "Ġfr",
        "om"
      ],
      [
        "Ġp",
        "er"
      ],
      [
        "Ġa",
        "l"
      ],
      [
        "Ġm",
        "an"
      ],
      [
        "Ġn",
        "ot"
      ],
      [
        "Ġs",
        "h"
      ],
      [
        "Ġ",
        "un"
      ],
      [
        "an",
        "d"
      ],
      [
        "a",
        "ge"
      ],
      [
        "igh",
        "t"
      ],
      [
        "Ġha",
        "ve"
      ],
      [
        "Ġt",
        "r"
      ],
      [
        "al",
        "ly"
      ],
      [
        "..",
        "."
      ],
      [
        "e",
        "m"
      ],
      [
        "en",
        "d"
      ],
      [
        "ou",
        "r"
      ],
      [
        "Ġb",
        "y"
      ],
      [
        "on",
        "e"
      ],
      [
        "an",
        "t"
      ],
      [
        "i",
        "v"
      ],
      [
        "is",
        "t"
      ],
      [
        "re",
        "d"
      ],
      [
        "in",
        "e"
      ],
      [
        "am",
        "e"
      ],
      [
        "Ġ",
        "..."
      ],
      [
        "Ġc",
        "al"
      ],
      [
        "p",
        "e"
      ],
      [
        "Ġs",
        "u"
      ],
      [
        "Ġc",
        "o"
      ],
      [
        "a",
        "ct"
      ],
      [
        "Ġa",
        "c"
      ],
      [
        "Ġi",
        "f"
      ],
      [
        "Ġt",
        "a"
      ],
      [
        "m",
        "ent"
      ],
      [
        "Ġ",
        "["
      ],
      [
        "e",
        "l"
      ],
      [
        "Ġg",
        "o"
      ],
      [
        "as",
        "t"
      ],
      [
        "ic",
        "k"
      ],
      [
        "Ġp",
        "l"
      ],
      [
        "id",
        "e"
      ],
      [
        "it",
        "y"
      ],
      [
        "om",
        "e"
      ],
      [
        "ar",
        "t"
      ],
      [
        "Ġw",
        "ill"
      ],
      [
        "on",
        "g"
      ],
      [
        "ar",
        "d"
      ],
      [
        "a",
        "g"
      ],
      [
        "i",
        "p"
      ],
      [
        "Ġw",
        "or"
      ],
      [
        "Ġa",
        "pp"
      ],
      [
        "o",
        "p"
      ],
      [
        "Ġ",
        "3"
      ],
      [
        "i",
        "b"
      ],
      [
        "Ġa",
        "ll"
      ],
      [
        "Ġw",
        "he"
      ],
      [
        "u",
        "re"
      ],
      [
        "Ġthe",
        "y"
      ],
      [
        "or",
        "t"
      ],
      [
        "i",
        "le"
      ],
      [
        "Ġm",
        "e"
      ],
      [
        "Ġman",
        "y"
      ],
      [
        "an",
        "s"
      ],
      [
        "Ġa",
        "b"
      ],
      [
        "ic",
        "e"
      ],
      [
        "i",
        "e"
      ],
      [
        "Ġb",
        "ut"
      ],
      [
        "Ġ[",
        "'"
      ],
      [
        "oun",
        "d"
      ],
      [
        "Ġd",
        "ay"
      ],
      [
        "Ġd",
        "r"
      ],
      [
        "Ġp",
        "re"
      ],
      [
        "c",
        "k"
      ],
      [
        "Ġg",
        "r"
      ],
      [
        "Ġm",
        "a"
      ],
      [
        "Ġa",
        "d"
      ],
      [
        "c",
        "l"
      ],
      [
        "re",
        "n"
      ],
      [
        "e",
        "ar"
      ],
      [
        "re",
        "e"
      ],
      [
        "u",
        "d"
      ],
      [
        "Ġs",
        "o"
      ],
      [
        "i",
        "z"
      ],
      [
        "i",
        "a"
      ],
      [
        "ou",
        "t"
      ],
      [
        "us",
        "t"
      ],
      [
        "Ġcon",
        "t"
      ],
      [
        "Ġon",
        "e"
      ],
      [
        "ac",
        "k"
      ],
      [
        "Ġ",
        "âĢ"
      ],
      [
        "p",
        "t"
      ],
      [
        "Ġdo",
        "es"
      ],
      [
        "Ġl",
        "o"
      ],
      [
        "al",
        "l"
      ],
      [
        "b",
        "er"
      ],
      [
        "ab",
        "le"
      ],
      [
        "Ġcom",
        "p"
      ],
      [
        "Ġth",
        "is"
      ],
      [
        ".'",
        "]"
      ],
      [
        "as",
        "s"
      ],
      [
        "Ġf",
        "e"
      ],
      [
        "Ġ2",
        "0"
      ],
      [
        "Ġa",
        "f"
      ],
      [
        "i",
        "al"
      ],
      [
        "Ġh",
        "as"
      ],
      [
        "w",
        "e"
      ],
      [
        "ic",
        "h"
      ],
      [
        "Ġ",
        "up"
      ],
      [
        "Ġc",
        "l"
      ],
      [
        "le",
        "ct"
      ],
      [
        "oun",
        "t"
      ],
      [
        "ou",
        "ld"
      ],
      [
        "s",
        "o"
      ],
      [
        "Ġg",
        "et"
      ],
      [
        "Ġh",
        "ow"
      ],
      [
        "a",
        "us"
      ],
      [
        "ion",
        "s"
      ],
      [
        "n",
        "e"
      ],
      [
        "Ġ",
        "\""
      ],
      [
        "at",
        "ed"
      ],
      [
        "Ġs",
        "p"
      ],
      [
        "g",
        "h"
      ],
      [
        "Ġ",
        "$"
      ],
      [
        "at",
        "er"
      ],
      [
        "ow",
        "n"
      ],
      [
        "Ġ",
        "4"
      ],
      [
        "Ġm",
        "u"
      ],
      [
        "Ġ",
        "en"
      ],
      [
        "t",
        "e"
      ],
      [
        "k",
        "s"
      ],
      [
        "Ġa",
        "m"
      ],
      [
        "Ġa",
        "r"
      ],
      [
        "in",
        "d"
      ],
      [
        "Ġl",
        "ong"
      ],
      [
        "Ġthe",
        "re"
      ],
      [
        "res",
        "s"
      ],
      [
        "Ġn",
        "o"
      ],
      [
        "Ġl",
        "i"
      ],
      [
        "Ġs",
        "c"
      ],
      [
        "Ġch",
        "an"
      ],
      [
        "ar",
        "y"
      ],
      [
        "o",
        "re"
      ],
      [
        "Ġwhe",
        "n"
      ],
      [
        "t",
        "her"
      ],
      [
        "ou",
        "gh"
      ],
      [
        "Ġm",
        "ay"
      ],
      [
        "Ġp",
        "r"
      ],
      [
        "Ġb",
        "et"
      ],
      [
        "Ġac",
        "c"
      ],
      [
        "Ġt",
        "w"
      ],
      [
        "Ġmu",
        "ch"
      ],
      [
        "Ġ",
        "5"
      ],
      [
        "Ġ'",
        ","
      ],
      [
        "a",
        "il"
      ],
      [
        "Ġb",
        "r"
      ],
      [
        "im",
        "e"
      ],
      [
        "Ġt",
        "e"
      ],
      [
        "u",
        "e"
      ],
      [
        "Ġd",
        "is"
      ],
      [
        "Ġp",
        "h"
      ],
      [
        "Ġp",
        "o"
      ],
      [
        "d",
        "er"
      ],
      [
        "Ġs",
        "y"
      ],
      [
        "Ġmo",
        "re"
      ],
      [
        "i",
        "re"
      ],
      [
        "k",
        "ing"
      ],
      [
        "Ġmo",
        "st"
      ],
      [
        "p",
        "er"
      ],
      [
        "Ġ",
        "qu"
      ],
      [
        "as",
        "e"
      ],
      [
        "Ġwh",
        "ich"
      ],
      [
        "en",
        "s"
      ],
      [
        "u",
        "b"
      ],
      [
        "Ġaf",
        "ter"
      ],
      [
        "Ġy",
        "ear"
      ],
      [
        "Ġo",
        "ut"
      ],
      [
        "Ġth",
        "an"
      ],
      [
        "p",
        "h"
      ],
      [
        "Ġf",
        "l"
      ],
      [
        "d",
        "u"
      ],
      [
        "or",
        "d"
      ],
      [
        "Ġb",
        "lo"
      ],
      [
        "a",
        "ce"
      ],
      [
        "fe",
        "ct"
      ],
      [
        "aus",
        "e"
      ],
      [
        "e",
        "p"
      ],
      [
        "Ġ",
        "ro"
      ],
      [
        "a",
        "v"
      ],
      [
        "Ġne",
        "ed"
      ],
      [
        "or",
        "ies"
      ],
      [
        "ur",
        "n"
      ],
      [
        "a",
        "ch"
      ],
      [
        "Ġne",
        "w"
      ],
      [
        "ul",
        "t"
      ],
      [
        "t",
        "o"
      ],
      [
        "or",
        "m"
      ],
      [
        "l",
        "es"
      ],
      [
        "it",
        "e"
      ],
      [
        "ou",
        "s"
      ],
      [
        "Ġn",
        "um"
      ],
      [
        "Ġs",
        "er"
      ],
      [
        "'",
        "t"
      ],
      [
        "Ġt",
        "y"
      ],
      [
        "o",
        "g"
      ],
      [
        "Ġs",
        "ome"
      ],
      [
        "Ġan",
        "y"
      ],
      [
        "Ġw",
        "as"
      ],
      [
        "Ġre",
        "s"
      ],
      [
        "ic",
        "al"
      ],
      [
        "an",
        "ce"
      ],
      [
        "Ġal",
        "so"
      ],
      [
        "o",
        "k"
      ],
      [
        "Ġc",
        "ar"
      ],
      [
        "ing",
        "s"
      ],
      [
        "Ġo",
        "ther"
      ],
      [
        "ver",
        "y"
      ],
      [
        "ig",
        "n"
      ],
      [
        "Ġi",
        "m"
      ],
      [
        "Ġ",
        "6"
      ],
      [
        "Ġm",
        "on"
      ],
      [
        "d",
        "o"
      ],
      [
        "Ġcal",
        "ories"
      ],
      [
        "we",
        "en"
      ],
      [
        "Ġthe",
        "ir"
      ],
      [
        "m",
        "on"
      ],
      [
        "an",
        "c"
      ],
      [
        "Ġbet",
        "ween"
      ],
      [
        "Ġtw",
        "o"
      ],
      [
        "Ġs",
        "a"
      ],
      [
        "Ġ",
        "x"
      ],
      [
        "le",
        "d"
      ],
      [
        "Ġta",
        "ke"
      ],
      [
        ")",
        "."
      ],
      [
        "Ġab",
        "out"
      ],
      [
        "g",
        "n"
      ],
      [
        "Ġw",
        "ater"
      ],
      [
        "Ġc",
        "he"
      ],
      [
        "Ġus",
        "e"
      ],
      [
        "Ġre",
        "c"
      ],
      [
        "r",
        "y"
      ],
      [
        "c",
        "an"
      ],
      [
        "p",
        "l"
      ],
      [
        "Ġpre",
        "gn"
      ],
      [
        "Ġgo",
        "od"
      ],
      [
        "Ġc",
        "ol"
      ],
      [
        "a",
        "k"
      ],
      [
        "Ġ",
        "u"
      ],
      [
        "Ġp",
        "e"
      ],
      [
        "b",
        "o"
      ],
      [
        "ad",
        "e"
      ],
      [
        "Ġof",
        "f"
      ],
      [
        "at",
        "es"
      ],
      [
        "Ġin",
        "c"
      ],
      [
        "Ġus",
        "ed"
      ],
      [
        "Ġwe",
        "e"
      ],
      [
        "w",
        "he"
      ],
      [
        "Ġf",
        "o"
      ],
      [
        "Ġsh",
        "ould"
      ],
      [
        "i",
        "x"
      ],
      [
        "re",
        "at"
      ],
      [
        "Ġt",
        "ime"
      ],
      [
        "âĢ",
        "Ŀ"
      ],
      [
        "ation",
        "s"
      ],
      [
        "Ġb",
        "o"
      ],
      [
        "Ġm",
        "in"
      ],
      [
        "Ġwh",
        "o"
      ],
      [
        "Ġchan",
        "ge"
      ],
      [
        "as",
        "on"
      ],
      [
        "Ġn",
        "ame"
      ],
      [
        "is",
        "h"
      ],
      [
        "r",
        "a"
      ],
      [
        "fe",
        "ren"
      ],
      [
        "ĠâĢ",
        "ľ"
      ],
      [
        "Ġm",
        "ar"
      ],
      [
        "it",
        "ion"
      ],
      [
        "ct",
        "ion"
      ],
      [
        "al",
        "s"
      ],
      [
        "Ġ20",
        "1"
      ],
      [
        "Ġh",
        "our"
      ],
      [
        "Ġd",
        "if"
      ],
      [
        "Ġday",
        "s"
      ],
      [
        "Ġfor",
        "m"
      ],
      [
        "Ġm",
        "y"
      ],
      [
        "cl",
        "ud"
      ],
      [
        "Ġe",
        "m"
      ],
      [
        "Ġthe",
        "n"
      ],
      [
        "Ġnum",
        "ber"
      ],
      [
        "Ġ",
        "z"
      ],
      [
        "p",
        "ort"
      ],
      [
        "Ġo",
        "ver"
      ],
      [
        "Ġbe",
        "c"
      ],
      [
        "Ġb",
        "l"
      ],
      [
        "g",
        "s"
      ],
      [
        "Ġli",
        "ke"
      ],
      [
        "am",
        "p"
      ],
      [
        "00",
        "0"
      ],
      [
        "o",
        "se"
      ],
      [
        "u",
        "ally"
      ],
      [
        "Ġk",
        "n"
      ],
      [
        "Ġblo",
        "od"
      ],
      [
        "Ġs",
        "m"
      ],
      [
        "or",
        "s"
      ],
      [
        "Ġg",
        "en"
      ],
      [
        "Ġs",
        "pe"
      ],
      [
        "Ġs",
        "et"
      ],
      [
        "c",
        "on"
      ],
      [
        "Ġ1",
        "0"
      ],
      [
        "ent",
        "s"
      ],
      [
        "Ġs",
        "ame"
      ],
      [
        "f",
        "t"
      ],
      [
        "Ġ",
        "-"
      ],
      [
        "e",
        "ll"
      ],
      [
        "Ġcon",
        "s"
      ],
      [
        "ot",
        "h"
      ],
      [
        "Ġon",
        "ly"
      ],
      [
        "am",
        "s"
      ],
      [
        "Ġe",
        "v"
      ],
      [
        "Ġe",
        "qu"
      ],
      [
        "ve",
        "l"
      ],
      [
        "i",
        "an"
      ],
      [
        "Ġin",
        "clud"
      ],
      [
        "'",
        ","
      ],
      [
        "ay",
        "s"
      ],
      [
        "Ġad",
        "d"
      ],
      [
        "r",
        "i"
      ],
      [
        "he",
        "s"
      ],
      [
        "Ġe",
        "ar"
      ],
      [
        "Ġf",
        "ir"
      ],
      [
        "l",
        "ic"
      ],
      [
        "Ġd",
        "i"
      ],
      [
        "Ġ",
        "8"
      ],
      [
        "Ġ",
        "7"
      ],
      [
        "Ġdif",
        "feren"
      ],
      [
        "Ġwh",
        "ile"
      ],
      [
        "c",
        "ent"
      ],
      [
        "2",
        "0"
      ],
      [
        "Ġco",
        "st"
      ],
      [
        "Ġmon",
        "th"
      ],
      [
        "il",
        "d"
      ],
      [
        "b",
        "s"
      ],
      [
        "Ġa",
        "ct"
      ],
      [
        "Ġp",
        "ass"
      ],
      [
        "Ġwor",
        "k"
      ],
      [
        "on",
        "s"
      ],
      [
        "Ġma",
        "ke"
      ],
      [
        "ib",
        "le"
      ],
      [
        "Ġin",
        "d"
      ],
      [
        "or",
        "n"
      ],
      [
        "l",
        "ow"
      ],
      [
        "d",
        "s"
      ],
      [
        "en",
        "ce"
      ],
      [
        "Ġfir",
        "st"
      ],
      [
        "Ġin",
        "to"
      ],
      [
        "it",
        "s"
      ],
      [
        "Ġp",
        "ers"
      ],
      [
        "an",
        "g"
      ],
      [
        "Ġc",
        "r"
      ],
      [
        "Ġ",
        "ke"
      ],
      [
        "Ġthe",
        "m"
      ],
      [
        "p",
        "s"
      ],
      [
        "a",
        "w"
      ],
      [
        "Ġm",
        "ed"
      ],
      [
        "f",
        "ore"
      ],
      [
        "er",
        "t"
      ],
      [
        "Ġd",
        "own"
      ],
      [
        "Ġpro",
        "du"
      ],
      [
        "or",
        "y"
      ],
      [
        "Ġse",
        "ason"
      ],
      [
        "if",
        "ic"
      ],
      [
        "'",
        "re"
      ],
      [
        "Ġo",
        "p"
      ],
      [
        "ul",
        "ar"
      ],
      [
        "Ġp",
        "art"
      ],
      [
        "Ġs",
        "k"
      ],
      [
        "ver",
        "s"
      ],
      [
        "l",
        "i"
      ],
      [
        "Ġh",
        "igh"
      ],
      [
        "t",
        "en"
      ],
      [
        "Ġit",
        "s"
      ],
      [
        "Ġtr",
        "ans"
      ],
      [
        "ol",
        "d"
      ],
      [
        "Ġwh",
        "at"
      ],
      [
        "Ġa",
        "ir"
      ],
      [
        "Ġb",
        "ack"
      ],
      [
        "er",
        "m"
      ],
      [
        "Ġse",
        "lect"
      ],
      [
        "Ġm",
        "ade"
      ],
      [
        "r",
        "ic"
      ],
      [
        "Ġre",
        "qu"
      ],
      [
        "Ġth",
        "ree"
      ],
      [
        "Ġpers",
        "on"
      ],
      [
        "Ġa",
        "g"
      ],
      [
        "at",
        "ing"
      ],
      [
        ")",
        ","
      ],
      [
        "in",
        "al"
      ],
      [
        "i",
        "o"
      ],
      [
        "Ġ",
        "9"
      ],
      [
        "Ġgen",
        "er"
      ],
      [
        "in",
        "t"
      ],
      [
        "Ġf",
        "ree"
      ],
      [
        "om",
        "s"
      ],
      [
        "Ġ",
        "="
      ],
      [
        "Ġyear",
        "s"
      ],
      [
        "ver",
        "age"
      ],
      [
        "c",
        "es"
      ],
      [
        "Ġs",
        "ign"
      ],
      [
        "i",
        "um"
      ],
      [
        "v",
        "ice"
      ],
      [
        "g",
        "r"
      ],
      [
        "ur",
        "ing"
      ],
      [
        "in",
        "k"
      ],
      [
        "Ġpl",
        "ay"
      ],
      [
        "d",
        "ay"
      ],
      [
        "Ġin",
        "st"
      ],
      [
        "Ġ1",
        "2"
      ],
      [
        "Ġre",
        "g"
      ],
      [
        "Ġty",
        "p"
      ],
      [
        "Ġper",
        "cent"
      ],
      [
        "Ġme",
        "an"
      ],
      [
        "al",
        "th"
      ],
      [
        "Ġin",
        "ter"
      ],
      [
        "c",
        "ess"
      ],
      [
        "Ġde",
        "p"
      ],
      [
        "in",
        "s"
      ],
      [
        "Ġcl",
        "ick"
      ],
      [
        "Ġth",
        "r"
      ],
      [
        "Ġop",
        "en"
      ],
      [
        "Ġb",
        "u"
      ],
      [
        "Ġv",
        "al"
      ],
      [
        "Ġhour",
        "s"
      ],
      [
        "Ġp",
        "ay"
      ],
      [
        "is",
        "s"
      ],
      [
        "t",
        "ing"
      ],
      [
        "Ġj",
        "ust"
      ],
      [
        "Ġbe",
        "en"
      ],
      [
        "Ġa",
        "v"
      ],
      [
        "od",
        "y"
      ],
      [
        "u",
        "al"
      ],
      [
        "Ġacc",
        "ount"
      ],
      [
        "Ġcom",
        "mon"
      ],
      [
        "Ġ1",
        "9"
      ],
      [
        "Ġl",
        "ow"
      ],
      [
        "Ġd",
        "es"
      ],
      [
        "ph",
        "one"
      ],
      [
        "op",
        "le"
      ],
      [
        "Ġ",
        "ve"
      ],
      [
        "Ġe",
        "ach"
      ],
      [
        "Ġg",
        "l"
      ],
      [
        "im",
        "es"
      ],
      [
        "Ġta",
        "x"
      ],
      [
        "iz",
        "e"
      ],
      [
        "Ġpe",
        "ople"
      ],
      [
        "c",
        "o"
      ],
      [
        "Ġa",
        "verage"
      ],
      [
        "t",
        "he"
      ],
      [
        "Ġre",
        "l"
      ],
      [
        "f",
        "l"
      ],
      [
        "ow",
        "s"
      ],
      [
        "c",
        "ur"
      ],
      [
        "Ġcont",
        "ain"
      ],
      [
        "at",
        "s"
      ],
      [
        "Ġch",
        "ar"
      ],
      [
        "Ġun",
        "der"
      ],
      [
        "i",
        "od"
      ],
      [
        "as",
        "ed"
      ],
      [
        "f",
        "er"
      ],
      [
        "m",
        "o"
      ],
      [
        "Ġbe",
        "fore"
      ],
      [
        "t",
        "y"
      ],
      [
        "Ġp",
        "ress"
      ],
      [
        "Ġf",
        "ol"
      ],
      [
        "Ġs",
        "he"
      ],
      [
        "Ġthe",
        "se"
      ],
      [
        "Ġm",
        "et"
      ],
      [
        "y",
        "s"
      ],
      [
        "Ġus",
        "ually"
      ],
      [
        "g",
        "et"
      ],
      [
        "Ġj",
        "o"
      ],
      [
        "Ġwee",
        "ks"
      ],
      [
        "Ġsy",
        "m"
      ],
      [
        "Ġ",
        "ent"
      ],
      [
        "os",
        "s"
      ],
      [
        "t",
        "on"
      ],
      [
        "Ġe",
        "very"
      ],
      [
        "Ġc",
        "up"
      ],
      [
        "Ġper",
        "iod"
      ],
      [
        "Ġhe",
        "alth"
      ],
      [
        "Ġc",
        "ard"
      ],
      [
        "Ġv",
        "is"
      ],
      [
        "Ġhe",
        "l"
      ],
      [
        "ĠâĢ",
        "ĵ"
      ],
      [
        "Ġn",
        "et"
      ],
      [
        "anc",
        "y"
      ],
      [
        "Ġb",
        "re"
      ],
      [
        "f",
        "orm"
      ],
      [
        "Ġd",
        "uring"
      ],
      [
        "Ġb",
        "urn"
      ],
      [
        "Ġex",
        "p"
      ],
      [
        "Ġc",
        "ause"
      ],
      [
        "Ġs",
        "how"
      ],
      [
        "Ġe",
        "f"
      ],
      [
        "Ġp",
        "ar"
      ],
      [
        "Ġfo",
        "od"
      ],
      [
        "Ġo",
        "ld"
      ],
      [
        "Ġi",
        "phone"
      ],
      [
        "st",
        "em"
      ],
      [
        "re",
        "en"
      ],
      [
        "at",
        "a"
      ],
      [
        "Ġs",
        "im"
      ],
      [
        "Ġc",
        "ell"
      ],
      [
        "Ġb",
        "ody"
      ],
      [
        "od",
        "e"
      ],
      [
        "Ġs",
        "al"
      ],
      [
        "Ġc",
        "ount"
      ],
      [
        "whe",
        "re"
      ],
      [
        "Ġs",
        "w"
      ],
      [
        "it",
        "ed"
      ],
      [
        "c",
        "ial"
      ],
      [
        "Ġc",
        "ur"
      ],
      [
        "is",
        "e"
      ],
      [
        "5",
        "0"
      ],
      [
        "Ġst",
        "art"
      ],
      [
        "c",
        "i"
      ],
      [
        "a",
        "ir"
      ],
      [
        "ic",
        "ally"
      ],
      [
        "g",
        "er"
      ],
      [
        "Ġre",
        "t"
      ],
      [
        "Ġin",
        "s"
      ],
      [
        "x",
        "t"
      ],
      [
        "Ġf",
        "il"
      ],
      [
        "Ġbec",
        "ause"
      ],
      [
        "ment",
        "s"
      ],
      [
        "Ġlo",
        "c"
      ],
      [
        "Ġpregn",
        "ancy"
      ],
      [
        "e",
        "ct"
      ],
      [
        "Ġm",
        "us"
      ],
      [
        "Ġen",
        "g"
      ],
      [
        "i",
        "red"
      ],
      [
        "an",
        "ge"
      ],
      [
        "e",
        "f"
      ],
      [
        "Ġsu",
        "ch"
      ],
      [
        "Ġsy",
        "stem"
      ],
      [
        "Ġb",
        "ab"
      ],
      [
        "Ġw",
        "ant"
      ],
      [
        "Ġthr",
        "ough"
      ],
      [
        "Ġst",
        "ill"
      ],
      [
        "Ġd",
        "on"
      ],
      [
        "at",
        "h"
      ],
      [
        "Ġf",
        "our"
      ],
      [
        "Ġl",
        "it"
      ],
      [
        "Ġpregn",
        "ant"
      ],
      [
        "Ġf",
        "un"
      ],
      [
        "Ġph",
        "ot"
      ],
      [
        "Ġsu",
        "b"
      ],
      [
        "ic",
        "s"
      ],
      [
        "s",
        "w"
      ],
      [
        "c",
        "ul"
      ],
      [
        "g",
        "ar"
      ],
      [
        "Ġde",
        "f"
      ],
      [
        "ation",
        "al"
      ],
      [
        "Ġp",
        "ain"
      ],
      [
        "r",
        "it"
      ],
      [
        "t",
        "le"
      ],
      [
        "b",
        "le"
      ],
      [
        "cl",
        "ick"
      ],
      [
        "Ġwe",
        "ight"
      ],
      [
        "Ġmonth",
        "s"
      ],
      [
        "Ġf",
        "ind"
      ],
      [
        "m",
        "s"
      ],
      [
        "ie",
        "w"
      ],
      [
        "Ġ",
        "ed"
      ],
      [
        "ne",
        "ct"
      ],
      [
        "e",
        "ver"
      ],
      [
        "Ġm",
        "en"
      ],
      [
        "Ġt",
        "est"
      ],
      [
        "n",
        "ess"
      ],
      [
        "Ġe",
        "lect"
      ],
      [
        "Ġst",
        "ate"
      ],
      [
        "Ġb",
        "oth"
      ],
      [
        "Ġst",
        "and"
      ],
      [
        "at",
        "ure"
      ],
      [
        "c",
        "le"
      ],
      [
        "Ġche",
        "ck"
      ],
      [
        "c",
        "ed"
      ],
      [
        "Ġst",
        "r"
      ],
      [
        "il",
        "y"
      ],
      [
        "Ġb",
        "est"
      ],
      [
        "Ġcal",
        "led"
      ],
      [
        "k",
        "es"
      ],
      [
        ".",
        "\""
      ],
      [
        "l",
        "and"
      ],
      [
        "c",
        "om"
      ],
      [
        "v",
        "ing"
      ],
      [
        "p",
        "ro"
      ],
      [
        "Ġp",
        "res"
      ],
      [
        "Ġar",
        "ound"
      ],
      [
        "Ġsa",
        "fe"
      ],
      [
        "Ġm",
        "il"
      ],
      [
        "as",
        "h"
      ],
      [
        "u",
        "ll"
      ],
      [
        "Ġhow",
        "ever"
      ],
      [
        "c",
        "r"
      ],
      [
        "Ġsu",
        "pp"
      ],
      [
        "Ġsym",
        "pt"
      ],
      [
        "a",
        "f"
      ],
      [
        "an",
        "k"
      ],
      [
        "Ġle",
        "vel"
      ],
      [
        "Ġme",
        "ans"
      ],
      [
        "Ġl",
        "ast"
      ],
      [
        "Ġef",
        "fect"
      ],
      [
        "at",
        "ch"
      ],
      [
        "at",
        "ive"
      ],
      [
        "Ġev",
        "en"
      ],
      [
        "p",
        "o"
      ],
      [
        "Ġse",
        "e"
      ],
      [
        "Ġt",
        "ap"
      ],
      [
        "Ġr",
        "ight"
      ],
      [
        "Ġs",
        "ur"
      ],
      [
        "u",
        "g"
      ],
      [
        "Ġch",
        "o"
      ],
      [
        "Ġpro",
        "te"
      ],
      [
        "Ġ",
        "end"
      ],
      [
        "t",
        "ed"
      ],
      [
        "Ġf",
        "act"
      ],
      [
        "in",
        "es"
      ],
      [
        "in",
        "ess"
      ],
      [
        "et",
        "s"
      ],
      [
        "ic",
        "es"
      ],
      [
        "w",
        "n"
      ],
      [
        "om",
        "et"
      ],
      [
        "Ġgr",
        "ams"
      ],
      [
        "g",
        "an"
      ],
      [
        "Ġd",
        "ata"
      ],
      [
        "ag",
        "es"
      ],
      [
        "a",
        "z"
      ],
      [
        "Ġwhe",
        "re"
      ],
      [
        "er",
        "g"
      ],
      [
        "Ġre",
        "d"
      ],
      [
        "Ġf",
        "ile"
      ],
      [
        "Ġa",
        "ge"
      ],
      [
        "Ġle",
        "g"
      ],
      [
        "a",
        "ke"
      ],
      [
        "Ġr",
        "un"
      ],
      [
        "id",
        "ent"
      ],
      [
        "i",
        "ous"
      ],
      [
        "t",
        "r"
      ],
      [
        "y",
        "d"
      ],
      [
        "er",
        "ic"
      ],
      [
        "Ġhe",
        "r"
      ],
      [
        "Ġh",
        "is"
      ],
      [
        "ar",
        "s"
      ],
      [
        "Ġf",
        "at"
      ],
      [
        "Ġsympt",
        "oms"
      ],
      [
        "il",
        "ity"
      ],
      [
        "on",
        "es"
      ],
      [
        "c",
        "y"
      ],
      [
        "Ġof",
        "ten"
      ],
      [
        "Ġus",
        "ing"
      ],
      [
        "i",
        "ed"
      ],
      [
        "l",
        "ine"
      ],
      [
        "Ġwe",
        "ll"
      ],
      [
        "lo",
        "ad"
      ],
      [
        "Ġhel",
        "p"
      ],
      [
        "Ġpro",
        "v"
      ],
      [
        "Ġm",
        "ain"
      ],
      [
        "Ġp",
        "ow"
      ],
      [
        "Ġin",
        "fect"
      ],
      [
        "r",
        "on"
      ],
      [
        "Ġc",
        "re"
      ],
      [
        "Ġan",
        "sw"
      ],
      [
        "Ġ201",
        "9"
      ],
      [
        "t",
        "ings"
      ],
      [
        "Ġty",
        "pe"
      ],
      [
        "an",
        "ts"
      ],
      [
        "Ġmin",
        "ut"
      ],
      [
        "Ġ",
        "very"
      ],
      [
        "am",
        "es"
      ],
      [
        "Ġg",
        "u"
      ],
      [
        "Ġ1",
        "00"
      ],
      [
        "j",
        "ect"
      ],
      [
        "Ġcon",
        "nect"
      ],
      [
        "Ġsm",
        "all"
      ],
      [
        "Ġc",
        "ent"
      ],
      [
        "Ġw",
        "om"
      ],
      [
        "g",
        "o"
      ],
      [
        "Ġ",
        ">"
      ],
      [
        "Ġw",
        "ind"
      ],
      [
        "ot",
        "s"
      ],
      [
        "whe",
        "n"
      ],
      [
        "Ġl",
        "ar"
      ],
      [
        "Ġcont",
        "ro"
      ],
      [
        "Ġb",
        "en"
      ],
      [
        "Ġwee",
        "k"
      ],
      [
        "Ġb",
        "ir"
      ],
      [
        "Ġe",
        "p"
      ],
      [
        "Ġpro",
        "f"
      ],
      [
        "u",
        "res"
      ],
      [
        "n",
        "ing"
      ],
      [
        "Ġf",
        "ound"
      ],
      [
        "ch",
        "o"
      ],
      [
        "Ġn",
        "ow"
      ],
      [
        "Ġch",
        "ild"
      ],
      [
        "Ġs",
        "ize"
      ],
      [
        "Ġe",
        "l"
      ],
      [
        "pt",
        "ion"
      ],
      [
        "Ġst",
        "ud"
      ],
      [
        "Ġdifferen",
        "t"
      ],
      [
        "ren",
        "t"
      ],
      [
        "or",
        "k"
      ],
      [
        "Ġh",
        "ome"
      ],
      [
        "Ġpress",
        "ure"
      ],
      [
        "Ġprodu",
        "ct"
      ],
      [
        "h",
        "ing"
      ],
      [
        "al",
        "e"
      ],
      [
        "a",
        "h"
      ],
      [
        "b",
        "ers"
      ],
      [
        "s",
        "s"
      ],
      [
        "Ġansw",
        "er"
      ],
      [
        "Ġre",
        "p"
      ],
      [
        "Ġst",
        "o"
      ],
      [
        "Ġd",
        "ist"
      ],
      [
        "ou",
        "se"
      ],
      [
        "Ġd",
        "iv"
      ],
      [
        "en",
        "se"
      ],
      [
        "Ġav",
        "ail"
      ],
      [
        "Ġc",
        "le"
      ],
      [
        "Ġm",
        "em"
      ],
      [
        "Ġset",
        "tings"
      ],
      [
        "h",
        "ip"
      ],
      [
        "Ġam",
        "eric"
      ],
      [
        "ou",
        "p"
      ],
      [
        "Ġn",
        "orm"
      ],
      [
        "ar",
        "m"
      ],
      [
        "iv",
        "es"
      ],
      [
        "Ġc",
        "lo"
      ],
      [
        "Ġm",
        "od"
      ],
      [
        "Ġ",
        "ic"
      ],
      [
        "Ġs",
        "ide"
      ],
      [
        "Ġb",
        "us"
      ],
      [
        "Ġto",
        "p"
      ],
      [
        "Ġm",
        "ust"
      ],
      [
        "v",
        "ed"
      ],
      [
        "f",
        "ul"
      ],
      [
        "Ġw",
        "ould"
      ],
      [
        "Ġo",
        "il"
      ],
      [
        "b",
        "r"
      ],
      [
        "Ġsk",
        "in"
      ],
      [
        "Ġl",
        "ight"
      ],
      [
        "Ġfol",
        "low"
      ],
      [
        "ol",
        "og"
      ],
      [
        "Ġ1",
        "8"
      ],
      [
        "Ġwe",
        "re"
      ],
      [
        "Ġwith",
        "in"
      ],
      [
        "ot",
        "her"
      ],
      [
        "an",
        "y"
      ],
      [
        ")",
        "',"
      ],
      [
        "Ġavail",
        "able"
      ],
      [
        "one",
        "y"
      ],
      [
        "1",
        "0"
      ],
      [
        "Ġt",
        "reat"
      ],
      [
        "Ġl",
        "ic"
      ],
      [
        "Ġkn",
        "own"
      ],
      [
        "Ġcom",
        "m"
      ],
      [
        "end",
        "s"
      ],
      [
        "Ġc",
        "ert"
      ],
      [
        "Ġdifferen",
        "ce"
      ],
      [
        "Ġs",
        "qu"
      ],
      [
        "Ġo",
        "wn"
      ],
      [
        "Ġwor",
        "ld"
      ],
      [
        "Ġm",
        "ult"
      ],
      [
        "a",
        "ve"
      ],
      [
        "g",
        "en"
      ],
      [
        "he",
        "d"
      ],
      [
        "Ġapp",
        "le"
      ],
      [
        "Ġbab",
        "y"
      ],
      [
        "ic",
        "t"
      ],
      [
        "l",
        "ess"
      ],
      [
        "o",
        "f"
      ],
      [
        "at",
        "ur"
      ],
      [
        "Ġd",
        "et"
      ],
      [
        "Ġv",
        "ar"
      ],
      [
        "Ġm",
        "ill"
      ],
      [
        "Ġhe",
        "art"
      ],
      [
        "id",
        "s"
      ],
      [
        "Ġt",
        "em"
      ],
      [
        "g",
        "es"
      ],
      [
        "'",
        "ll"
      ],
      [
        "Ġo",
        "ur"
      ],
      [
        "l",
        "s"
      ],
      [
        "y",
        "e"
      ],
      [
        "Ġan",
        "t"
      ],
      [
        "Ġcomp",
        "le"
      ],
      [
        "Ġt",
        "imes"
      ],
      [
        "iv",
        "ing"
      ],
      [
        "ate",
        "ly"
      ],
      [
        "Ġy",
        "es"
      ],
      [
        "ne",
        "y"
      ],
      [
        "as",
        "es"
      ],
      [
        "Ġre",
        "f"
      ],
      [
        "wh",
        "o"
      ],
      [
        "Ġdo",
        "gs"
      ],
      [
        "t",
        "al"
      ],
      [
        "Ġst",
        "ates"
      ],
      [
        "ar",
        "k"
      ],
      [
        "wh",
        "y"
      ],
      [
        "Ġo",
        "b"
      ],
      [
        "Ġcur",
        "rent"
      ],
      [
        "Ġb",
        "ro"
      ],
      [
        "Ġ",
        "0"
      ],
      [
        "Ġwith",
        "out"
      ],
      [
        "Ġch",
        "r"
      ],
      [
        "Ġe",
        "as"
      ],
      [
        "Ġkn",
        "ow"
      ],
      [
        "Ġhe",
        "ad"
      ],
      [
        "Ġall",
        "ow"
      ],
      [
        "at",
        "ter"
      ],
      [
        "Ġv",
        "ide"
      ],
      [
        "a",
        "x"
      ],
      [
        "in",
        "ts"
      ],
      [
        "act",
        "er"
      ],
      [
        "Ġl",
        "ist"
      ],
      [
        "Ġinc",
        "re"
      ],
      [
        "Ġinclud",
        "e"
      ],
      [
        "Ġre",
        "ce"
      ],
      [
        "Ġe",
        "at"
      ],
      [
        "Ġ1",
        "5"
      ],
      [
        "Ġde",
        "c"
      ],
      [
        "Ġapp",
        "ro"
      ],
      [
        "p",
        "lo"
      ],
      [
        "r",
        "al"
      ],
      [
        "Ġt",
        "v"
      ],
      [
        "Ġw",
        "ay"
      ],
      [
        "u",
        "c"
      ],
      [
        "Ġ3",
        "0"
      ],
      [
        "Ġmed",
        "ic"
      ],
      [
        "ou",
        "th"
      ],
      [
        "Ġin",
        "t"
      ],
      [
        "Ġ",
        "&"
      ],
      [
        "Ġex",
        "t"
      ],
      [
        "Ġs",
        "n"
      ],
      [
        "Ġs",
        "l"
      ],
      [
        "u",
        "ct"
      ],
      [
        "t",
        "ap"
      ],
      [
        "Ġc",
        "aus"
      ],
      [
        "Ġsu",
        "gar"
      ],
      [
        "m",
        "e"
      ],
      [
        "ut",
        "er"
      ],
      [
        "Ġd",
        "ire"
      ],
      [
        "ound",
        "s"
      ],
      [
        "Ġha",
        "ir"
      ],
      [
        "it",
        "ies"
      ],
      [
        "g",
        "in"
      ],
      [
        "v",
        "en"
      ],
      [
        "ĠâĢ",
        "Ķ"
      ],
      [
        "Ġle",
        "ast"
      ],
      [
        "Ġ20",
        "20"
      ],
      [
        "Ġblo",
        "ck"
      ],
      [
        "bo",
        "x"
      ],
      [
        "b",
        "e"
      ],
      [
        "Ġex",
        "ce"
      ],
      [
        "Ġf",
        "ull"
      ],
      [
        "Ġa",
        "ut"
      ],
      [
        "Ġh",
        "um"
      ],
      [
        "Ġs",
        "in"
      ],
      [
        "i",
        "ent"
      ],
      [
        "pe",
        "ct"
      ],
      [
        "Ġsome",
        "one"
      ],
      [
        "Ġde",
        "vice"
      ],
      [
        "at",
        "or"
      ],
      [
        "Ġp",
        "ot"
      ],
      [
        "Ġo",
        "c"
      ],
      [
        "Ġg",
        "ame"
      ],
      [
        "Ġminut",
        "es"
      ],
      [
        "Ġc",
        "ap"
      ],
      [
        "Ġbe",
        "ing"
      ],
      [
        "Ġl",
        "ess"
      ],
      [
        "Ġpro",
        "cess"
      ],
      [
        "x",
        "im"
      ],
      [
        "Ġe",
        "g"
      ],
      [
        "ord",
        "ing"
      ],
      [
        "l",
        "f"
      ],
      [
        "Ġa",
        "w"
      ],
      [
        "Ġdown",
        "load"
      ],
      [
        "v",
        "es"
      ],
      [
        "Ġ1",
        "6"
      ],
      [
        "Ġre",
        "m"
      ],
      [
        "w",
        "ord"
      ],
      [
        "Ġs",
        "omet"
      ],
      [
        "Ġbir",
        "th"
      ],
      [
        "a",
        "pp"
      ],
      [
        "Ġin",
        "v"
      ],
      [
        "se",
        "lect"
      ],
      [
        "Ġs",
        "ing"
      ],
      [
        "Ġs",
        "ol"
      ],
      [
        "Ġv",
        "it"
      ],
      [
        "Ġm",
        "oney"
      ],
      [
        "Ġse",
        "con"
      ],
      [
        "Ġwh",
        "ite"
      ],
      [
        "Ġam",
        "ount"
      ],
      [
        "on",
        "d"
      ],
      [
        "Ġcon",
        "d"
      ],
      [
        "Ġg",
        "reat"
      ],
      [
        "Ġequ",
        "al"
      ],
      [
        "Ġstand",
        "ard"
      ],
      [
        "Ġke",
        "ep"
      ],
      [
        "u",
        "f"
      ],
      [
        "iz",
        "ed"
      ],
      [
        "Ġfe",
        "el"
      ],
      [
        "Ġre",
        "al"
      ],
      [
        "Ġ",
        "ur"
      ],
      [
        "Ġep",
        "is"
      ],
      [
        "Ġmult",
        "ip"
      ],
      [
        "ar",
        "ch"
      ],
      [
        "Ġf",
        "ace"
      ],
      [
        "Ġspe",
        "c"
      ],
      [
        "Ġben",
        "ef"
      ],
      [
        "Ġ",
        "ver"
      ],
      [
        "c",
        "er"
      ],
      [
        "Ġinclud",
        "ing"
      ],
      [
        "Ġqu",
        "al"
      ],
      [
        "ve",
        "lo"
      ],
      [
        "p",
        "r"
      ],
      [
        "Ġle",
        "ft"
      ],
      [
        "Ġex",
        "per"
      ],
      [
        "Ġc",
        "red"
      ],
      [
        "Ġp",
        "ur"
      ],
      [
        "Ġb",
        "ot"
      ],
      [
        "Ġex",
        "amp"
      ],
      [
        "cur",
        "ity"
      ],
      [
        "i",
        "ence"
      ],
      [
        "Ġfl",
        "u"
      ],
      [
        "Ġacc",
        "ording"
      ],
      [
        "ter",
        "s"
      ],
      [
        "Ġp",
        "ol"
      ],
      [
        "Ġre",
        "st"
      ],
      [
        "do",
        "es"
      ],
      [
        "Ġn",
        "on"
      ],
      [
        "ide",
        "red"
      ],
      [
        "am",
        "in"
      ],
      [
        "Ġcons",
        "idered"
      ],
      [
        "Ġphot",
        "os"
      ],
      [
        "Ġas",
        "s"
      ],
      [
        "Ġbus",
        "iness"
      ],
      [
        "Ġfe",
        "w"
      ],
      [
        "Ġo",
        "un"
      ],
      [
        "om",
        "m"
      ],
      [
        "end",
        "ing"
      ],
      [
        "Ġv",
        "iew"
      ],
      [
        "Ġh",
        "and"
      ],
      [
        "Ġc",
        "y"
      ],
      [
        "Ġb",
        "as"
      ],
      [
        "Ġtrans",
        "fer"
      ],
      [
        "Ġun",
        "ited"
      ],
      [
        "Ġt",
        "ab"
      ],
      [
        "Ġwom",
        "en"
      ],
      [
        "Ġpow",
        "er"
      ],
      [
        "Ġcal",
        "cul"
      ],
      [
        "Ġt",
        "erm"
      ],
      [
        "Ġcl",
        "ass"
      ],
      [
        "Ġon",
        "ce"
      ],
      [
        "Ġv",
        "ol"
      ],
      [
        "Ġst",
        "re"
      ],
      [
        "Ġat",
        "t"
      ],
      [
        "v",
        "ices"
      ],
      [
        "Ġse",
        "curity"
      ],
      [
        "Ġor",
        "ig"
      ],
      [
        "Ġto",
        "o"
      ],
      [
        "Ġnorm",
        "al"
      ],
      [
        "Ġpro",
        "per"
      ],
      [
        "Ġp",
        "op"
      ],
      [
        "ut",
        "e"
      ],
      [
        "it",
        "al"
      ],
      [
        "Ġb",
        "ig"
      ],
      [
        "Ġp",
        "oss"
      ],
      [
        "Ġsqu",
        "are"
      ],
      [
        "Ġan",
        "n"
      ],
      [
        "Ġdire",
        "ct"
      ],
      [
        "Ġre",
        "le"
      ],
      [
        "el",
        "s"
      ],
      [
        "Ġr",
        "ate"
      ],
      [
        "Ġ1",
        "1"
      ],
      [
        "id",
        "er"
      ],
      [
        "Ġd",
        "ate"
      ],
      [
        "Ġcell",
        "s"
      ],
      [
        "Ġtyp",
        "es"
      ],
      [
        "Ġpl",
        "an"
      ],
      [
        "Ġ1",
        "4"
      ],
      [
        "Ġf",
        "ive"
      ],
      [
        "Ġf",
        "am"
      ],
      [
        "Ġpass",
        "word"
      ],
      [
        "ed",
        "ing"
      ],
      [
        "Ġgener",
        "ally"
      ],
      [
        "Ġs",
        "ix"
      ],
      [
        "o",
        "od"
      ],
      [
        "Ġsc",
        "reen"
      ],
      [
        "Ġr",
        "is"
      ],
      [
        "Ġser",
        "vice"
      ],
      [
        "Ġsh",
        "ort"
      ],
      [
        "Ġli",
        "fe"
      ],
      [
        "1",
        "2"
      ],
      [
        "Ġde",
        "velo"
      ],
      [
        "Ġrec",
        "omm"
      ],
      [
        "r",
        "ies"
      ],
      [
        "Ġc",
        "our"
      ],
      [
        "Ġf",
        "in"
      ],
      [
        "Ġi",
        "r"
      ],
      [
        "Ġl",
        "ive"
      ],
      [
        "Ġinter",
        "n"
      ],
      [
        "i",
        "vers"
      ],
      [
        "Ġon",
        "line"
      ],
      [
        "u",
        "es"
      ],
      [
        "Ġc",
        "ould"
      ],
      [
        "Ġ",
        "est"
      ],
      [
        "i",
        "er"
      ],
      [
        "Ġfe",
        "et"
      ],
      [
        "Ġ",
        "es"
      ],
      [
        "Ġpo",
        "st"
      ],
      [
        "Ġu",
        "k"
      ],
      [
        "Ġs",
        "un"
      ],
      [
        "Ġme",
        "as"
      ],
      [
        "i",
        "ver"
      ],
      [
        "Ġpercent",
        "age"
      ],
      [
        "Ġh",
        "ouse"
      ],
      [
        "Ġim",
        "port"
      ],
      [
        "Ġj",
        "u"
      ],
      [
        "Ġto",
        "tal"
      ],
      [
        "ut",
        "ion"
      ],
      [
        "ul",
        "ts"
      ],
      [
        "Ġso",
        "cial"
      ],
      [
        "Ġh",
        "ig"
      ],
      [
        "Ġser",
        "ies"
      ],
      [
        "Ġph",
        "one"
      ],
      [
        "cho",
        "ol"
      ],
      [
        "Ġcom",
        "e"
      ],
      [
        "ie",
        "ld"
      ],
      [
        "Ġun",
        "t"
      ],
      [
        "Ġc",
        "or"
      ],
      [
        "Ġn",
        "ut"
      ],
      [
        "Ġapp",
        "ear"
      ],
      [
        "st",
        "r"
      ],
      [
        "Ġan",
        "im"
      ],
      [
        "Ġl",
        "aw"
      ],
      [
        "bo",
        "ok"
      ],
      [
        "Ġent",
        "er"
      ],
      [
        "Ġmean",
        "ing"
      ],
      [
        "id",
        "es"
      ],
      [
        "m",
        "an"
      ],
      [
        "Ġtr",
        "a"
      ],
      [
        "Ġsin",
        "ce"
      ],
      [
        "Ġcontro",
        "l"
      ],
      [
        "Ġ2",
        "5"
      ],
      [
        "get",
        "her"
      ],
      [
        "Ġcomp",
        "any"
      ],
      [
        "Ġcon",
        "f"
      ],
      [
        "Ġb",
        "al"
      ],
      [
        "Ġmar",
        "k"
      ],
      [
        "Ġpo",
        "ints"
      ],
      [
        "Ġ2",
        "4"
      ],
      [
        "Ġfr",
        "i"
      ],
      [
        "ter",
        "n"
      ],
      [
        "Ġw",
        "atch"
      ],
      [
        "Ġb",
        "ad"
      ],
      [
        "Ġret",
        "urn"
      ],
      [
        "Ġw",
        "on"
      ],
      [
        "ub",
        "lic"
      ],
      [
        "en",
        "g"
      ],
      [
        "v",
        "ent"
      ],
      [
        "Ġs",
        "chool"
      ],
      [
        "n",
        "a"
      ],
      [
        "Ġvide",
        "o"
      ],
      [
        "Ġinc",
        "ome"
      ],
      [
        "Ġd",
        "ig"
      ],
      [
        "Ġval",
        "ue"
      ],
      [
        "Ġgener",
        "al"
      ],
      [
        "Ġcontain",
        "s"
      ],
      [
        "Ġb",
        "ank"
      ],
      [
        "g",
        "est"
      ],
      [
        "Ġtyp",
        "ically"
      ],
      [
        "Ġto",
        "gether"
      ],
      [
        "Ġsecon",
        "d"
      ],
      [
        "Ġb",
        "ar"
      ],
      [
        "Ġrequ",
        "ire"
      ],
      [
        "Ġh",
        "al"
      ],
      [
        "ard",
        "s"
      ],
      [
        "re",
        "ad"
      ],
      [
        "Ġdo",
        "g"
      ],
      [
        "Ġem",
        "ail"
      ],
      [
        "3",
        "0"
      ],
      [
        "Ġw",
        "al"
      ],
      [
        "Ġsim",
        "p"
      ],
      [
        "Ġtem",
        "per"
      ],
      [
        "Ġapp",
        "lic"
      ],
      [
        "Ġs",
        "we"
      ],
      [
        "w",
        "ays"
      ],
      [
        "Ġh",
        "o"
      ],
      [
        "Ġne",
        "xt"
      ],
      [
        "h",
        "ic"
      ],
      [
        "Ġwind",
        "ows"
      ],
      [
        "Ġm",
        "ight"
      ],
      [
        "r",
        "am"
      ],
      [
        "Ġcomp",
        "uter"
      ],
      [
        "Ġv",
        "ir"
      ],
      [
        "Ġrequ",
        "ired"
      ],
      [
        "Ġunt",
        "il"
      ],
      [
        "Ġt",
        "urn"
      ],
      [
        "Ġdef",
        "in"
      ],
      [
        "Ġ",
        "id"
      ],
      [
        "act",
        "ion"
      ],
      [
        "Ġare",
        "a"
      ],
      [
        "Ġ",
        "."
      ],
      [
        "Ġdevelo",
        "p"
      ],
      [
        "Ġm",
        "ic"
      ],
      [
        "Ġbl",
        "ack"
      ],
      [
        "Ġbut",
        "ton"
      ],
      [
        "Ġcol",
        "or"
      ],
      [
        "Ġde",
        "g"
      ],
      [
        "erg",
        "y"
      ],
      [
        "n",
        "er"
      ],
      [
        "am",
        "m"
      ],
      [
        "ro",
        "p"
      ],
      [
        "ain",
        "s"
      ],
      [
        "ill",
        "s"
      ],
      [
        "Ġcont",
        "r"
      ],
      [
        "Ġear",
        "ly"
      ],
      [
        "Ġoff",
        "ic"
      ],
      [
        "e",
        "x"
      ],
      [
        "Ġem",
        "plo"
      ],
      [
        "ub",
        "e"
      ],
      [
        "ro",
        "ss"
      ],
      [
        "Ġproduct",
        "s"
      ],
      [
        "Ġs",
        "le"
      ],
      [
        "Ġameric",
        "an"
      ],
      [
        "l",
        "ish"
      ],
      [
        "Ġm",
        "ac"
      ],
      [
        "Ġth",
        "ose"
      ],
      [
        "Ġlit",
        "tle"
      ],
      [
        "Ġgl",
        "ut"
      ],
      [
        "6",
        "0"
      ],
      [
        "en",
        "cy"
      ],
      [
        "Ġbec",
        "ome"
      ],
      [
        "in",
        "a"
      ],
      [
        "Ġre",
        "pl"
      ],
      [
        "Ġinfect",
        "ion"
      ],
      [
        "Ġpl",
        "ace"
      ],
      [
        "Ġw",
        "ar"
      ],
      [
        "Ġlic",
        "ense"
      ],
      [
        "Ġh",
        "ard"
      ],
      [
        "ion",
        "al"
      ],
      [
        "o",
        "x"
      ],
      [
        "Ġ2",
        "00"
      ],
      [
        "Ġle",
        "ad"
      ],
      [
        "er",
        "n"
      ],
      [
        "Ġag",
        "ain"
      ],
      [
        "if",
        "ied"
      ],
      [
        "Ġdis",
        "e"
      ],
      [
        "Ġcho",
        "ose"
      ],
      [
        "Ġ5",
        "0"
      ],
      [
        "Ġth",
        "ough"
      ],
      [
        "u",
        "ck"
      ],
      [
        "Ġac",
        "id"
      ],
      [
        "Ġexamp",
        "le"
      ],
      [
        "Ġco",
        "ok"
      ],
      [
        "et",
        "y"
      ],
      [
        "Ġfo",
        "ot"
      ],
      [
        "Ġke",
        "y"
      ],
      [
        "Ġcred",
        "it"
      ],
      [
        "Ġrecomm",
        "end"
      ],
      [
        "Ġc",
        "are"
      ],
      [
        "Ġd",
        "am"
      ],
      [
        "Ġcup",
        "s"
      ],
      [
        "Ġbet",
        "ter"
      ],
      [
        "Ġwor",
        "d"
      ],
      [
        "w",
        "ork"
      ],
      [
        "s",
        "h"
      ],
      [
        "is",
        "ts"
      ],
      [
        "Ġl",
        "im"
      ],
      [
        "Ġm",
        "ess"
      ],
      [
        "Ġl",
        "ab"
      ],
      [
        "Ġta",
        "kes"
      ],
      [
        "Ġor",
        "der"
      ],
      [
        "Ġvis",
        "a"
      ],
      [
        "Ġglut",
        "en"
      ],
      [
        "Ġf",
        "ast"
      ],
      [
        "Ġmen",
        "u"
      ],
      [
        "Ġ4",
        "0"
      ],
      [
        "a",
        "id"
      ],
      [
        "m",
        "ed"
      ],
      [
        "Ġmar",
        "ri"
      ],
      [
        "Ġgr",
        "ow"
      ],
      [
        "Ġh",
        "ol"
      ],
      [
        "th",
        "ough"
      ],
      [
        "Ġin",
        "form"
      ],
      [
        "Ġcan",
        "ad"
      ],
      [
        "Ġdr",
        "ive"
      ],
      [
        "Ġgr",
        "oup"
      ],
      [
        "r",
        "ap"
      ],
      [
        "Ġc",
        "it"
      ],
      [
        "Ġprote",
        "in"
      ],
      [
        "Ġp",
        "s"
      ],
      [
        "Ġw",
        "a"
      ],
      [
        "Ġha",
        "pp"
      ],
      [
        "Ġdr",
        "in"
      ],
      [
        "Ġmo",
        "ve"
      ],
      [
        "Ġdr",
        "y"
      ],
      [
        "Ġh",
        "ad"
      ],
      [
        "Ġx",
        "box"
      ],
      [
        "Ġr",
        "ange"
      ],
      [
        "Ġdr",
        "ink"
      ],
      [
        "iv",
        "al"
      ],
      [
        "Ġeffect",
        "s"
      ],
      [
        "um",
        "p"
      ],
      [
        "Ġp",
        "age"
      ],
      [
        "Ġre",
        "mo"
      ],
      [
        "er",
        "al"
      ],
      [
        "Ġn",
        "atur"
      ],
      [
        "Ġsh",
        "o"
      ],
      [
        "Ġan",
        "other"
      ],
      [
        "Ġbe",
        "l"
      ],
      [
        "Ġl",
        "ine"
      ],
      [
        "'",
        "]"
      ],
      [
        "Ġ",
        "Â"
      ],
      [
        "an",
        "e"
      ],
      [
        "Ġst",
        "ar"
      ],
      [
        "Ġlong",
        "er"
      ],
      [
        "i",
        "or"
      ],
      [
        "ou",
        "d"
      ],
      [
        "Ġma",
        "j"
      ],
      [
        "f",
        "ic"
      ],
      [
        "it",
        "her"
      ],
      [
        "it",
        "ive"
      ],
      [
        "Ġp",
        "ack"
      ],
      [
        "Ġpro",
        "ble"
      ],
      [
        "or",
        "ts"
      ],
      [
        "Ġlar",
        "ge"
      ],
      [
        "âĢ",
        "Ķ"
      ],
      [
        "Ġinc",
        "hes"
      ],
      [
        "Ġcomple",
        "te"
      ],
      [
        "Ġre",
        "ad"
      ],
      [
        "Ġres",
        "ult"
      ],
      [
        "y",
        "m"
      ],
      [
        "Ġp",
        "ut"
      ],
      [
        "is",
        "m"
      ],
      [
        "Ġal",
        "though"
      ],
      [
        "Ġn",
        "ational"
      ],
      [
        "Ġtra",
        "vel"
      ],
      [
        "âĢ",
        "ĵ"
      ],
      [
        "at",
        "her"
      ],
      [
        "Ġlow",
        "er"
      ],
      [
        "ul",
        "a"
      ],
      [
        "Ġg",
        "ames"
      ],
      [
        "Ġmil",
        "k"
      ],
      [
        "ne",
        "w"
      ],
      [
        "um",
        "e"
      ],
      [
        "Ġle",
        "t"
      ],
      [
        "Ġfil",
        "es"
      ],
      [
        "Ġoc",
        "cur"
      ],
      [
        "Ġh",
        "old"
      ],
      [
        "c",
        "um"
      ],
      [
        "Ġp",
        "at"
      ],
      [
        "Ġcon",
        "ver"
      ],
      [
        "d",
        "e"
      ],
      [
        "Ġprof",
        "ile"
      ],
      [
        "Ġwor",
        "th"
      ],
      [
        "igh",
        "ts"
      ],
      [
        "if",
        "y"
      ],
      [
        "c",
        "he"
      ],
      [
        "Ġsle",
        "ep"
      ],
      [
        "Ġor",
        "gan"
      ],
      [
        "Ġnum",
        "bers"
      ],
      [
        "Ġn",
        "or"
      ],
      [
        "Ġ",
        "/"
      ],
      [
        "Ġcal",
        "l"
      ],
      [
        "Ġe",
        "le"
      ],
      [
        "Ġris",
        "k"
      ],
      [
        "Ġch",
        "ick"
      ],
      [
        "Ġst",
        "e"
      ],
      [
        "Ġf",
        "ed"
      ],
      [
        "Ġk",
        "il"
      ],
      [
        "Ġleg",
        "al"
      ],
      [
        "a",
        "u"
      ],
      [
        "Ġh",
        "ot"
      ],
      [
        "Ġposs",
        "ible"
      ],
      [
        "ip",
        "t"
      ],
      [
        "Ġrec",
        "ord"
      ],
      [
        "Ġoun",
        "ces"
      ],
      [
        "2",
        "5"
      ],
      [
        "ang",
        "u"
      ],
      [
        "Ġh",
        "yd"
      ],
      [
        "et",
        "o"
      ],
      [
        "fl",
        "ix"
      ],
      [
        "Ġmaj",
        "or"
      ],
      [
        "Ġadd",
        "ress"
      ],
      [
        "y",
        "l"
      ],
      [
        "Ġcom",
        "b"
      ],
      [
        "Ġ1",
        "3"
      ],
      [
        "Ġre",
        "du"
      ],
      [
        "n",
        "s"
      ],
      [
        "Ġwor",
        "ds"
      ],
      [
        "Ġvar",
        "i"
      ],
      [
        "Ġd",
        "ue"
      ],
      [
        "Ġbo",
        "x"
      ],
      [
        "u",
        "ary"
      ],
      [
        "Ġsupp",
        "ort"
      ],
      [
        "un",
        "e"
      ],
      [
        "Ġal",
        "ways"
      ],
      [
        "Ġpro",
        "gr"
      ],
      [
        "x",
        "ic"
      ],
      [
        "Ġr",
        "ing"
      ],
      [
        "it",
        "ing"
      ],
      [
        "Ġbr",
        "and"
      ],
      [
        "Ġc",
        "ust"
      ],
      [
        "Ġen",
        "ergy"
      ],
      [
        "n",
        "ot"
      ],
      [
        "Ġb",
        "ased"
      ],
      [
        "Ġnet",
        "flix"
      ],
      [
        "h",
        "ol"
      ],
      [
        "v",
        "is"
      ],
      [
        "Ġs",
        "up"
      ],
      [
        "Ġlevel",
        "s"
      ],
      [
        "Ġs",
        "ay"
      ],
      [
        "Ġmill",
        "ion"
      ],
      [
        "Ġve",
        "hic"
      ],
      [
        "i",
        "k"
      ],
      [
        "Ġo",
        "pt"
      ],
      [
        "o",
        "id"
      ],
      [
        "Ġbot",
        "t"
      ],
      [
        "Ġp",
        "os"
      ],
      [
        "ul",
        "ation"
      ],
      [
        "Ġdes",
        "ign"
      ],
      [
        "Ġbenef",
        "its"
      ],
      [
        "b",
        "ile"
      ],
      [
        "i",
        "pp"
      ],
      [
        "i",
        "ents"
      ],
      [
        "Ġdise",
        "ase"
      ],
      [
        "ver",
        "n"
      ],
      [
        "Ġfun",
        "ction"
      ],
      [
        "Ġhal",
        "f"
      ],
      [
        "k",
        "en"
      ],
      [
        "Ġaf",
        "fect"
      ],
      [
        "le",
        "t"
      ],
      [
        "Ġpass",
        "port"
      ],
      [
        "op",
        "en"
      ],
      [
        "p",
        "y"
      ],
      [
        "ct",
        "or"
      ],
      [
        "Ġinform",
        "ation"
      ],
      [
        "pl",
        "ay"
      ],
      [
        "i",
        "res"
      ],
      [
        "oun",
        "ts"
      ],
      [
        "ll",
        "ing"
      ],
      [
        "Ġtemper",
        "ature"
      ],
      [
        "Ġbu",
        "y"
      ],
      [
        "is",
        "on"
      ],
      [
        "Ġw",
        "in"
      ],
      [
        "ip",
        "s"
      ],
      [
        "re",
        "st"
      ],
      [
        "Ġacc",
        "ess"
      ],
      [
        "Ġin",
        "te"
      ],
      [
        "t",
        "ain"
      ],
      [
        "Ġg",
        "ive"
      ],
      [
        "m",
        "in"
      ],
      [
        "Ġw",
        "rit"
      ],
      [
        "Ġl",
        "angu"
      ],
      [
        "od",
        "es"
      ],
      [
        "c",
        "ol"
      ],
      [
        "Ġpl",
        "us"
      ],
      [
        "Ġab",
        "le"
      ],
      [
        "m",
        "it"
      ],
      [
        "Ġsing",
        "le"
      ],
      [
        "Ġdep",
        "ending"
      ],
      [
        "Ġs",
        "our"
      ],
      [
        "Ġfam",
        "ily"
      ],
      [
        "Ġn",
        "ight"
      ],
      [
        "Ġb",
        "le"
      ],
      [
        "g",
        "ed"
      ],
      [
        "Ġapp",
        "ly"
      ],
      [
        "c",
        "re"
      ],
      [
        "iv",
        "en"
      ],
      [
        "Ġin",
        "f"
      ],
      [
        "Ġeng",
        "lish"
      ],
      [
        "Ġs",
        "outh"
      ],
      [
        "od",
        "s"
      ],
      [
        "Ġh",
        "y"
      ],
      [
        "it",
        "ch"
      ],
      [
        "Ġa",
        "ust"
      ],
      [
        "pp",
        "er"
      ],
      [
        "Ġb",
        "atter"
      ],
      [
        "Ġface",
        "book"
      ],
      [
        "Ġb",
        "an"
      ],
      [
        "ail",
        "y"
      ],
      [
        "Ġcount",
        "ry"
      ],
      [
        "Ġepis",
        "ode"
      ],
      [
        "un",
        "g"
      ],
      [
        "Ġl",
        "oss"
      ],
      [
        "Ġp",
        "ort"
      ],
      [
        "ition",
        "al"
      ],
      [
        "Ġo",
        "per"
      ],
      [
        "Ġhe",
        "re"
      ],
      [
        "Ġres",
        "p"
      ],
      [
        "r",
        "ation"
      ],
      [
        "Ġo",
        "v"
      ],
      [
        "Ġun",
        "it"
      ],
      [
        "Ġyou",
        "t"
      ],
      [
        "Ġar",
        "r"
      ],
      [
        "Ġhig",
        "her"
      ],
      [
        "ag",
        "n"
      ],
      [
        "Ġ",
        "q"
      ],
      [
        "Ġk",
        "ing"
      ],
      [
        "in",
        "ation"
      ],
      [
        "ed",
        "s"
      ],
      [
        "Ġo",
        "ption"
      ],
      [
        "Ġappro",
        "xim"
      ],
      [
        "m",
        "ber"
      ],
      [
        "Ġp",
        "ast"
      ],
      [
        "om",
        "es"
      ],
      [
        "at",
        "ic"
      ],
      [
        "u",
        "le"
      ],
      [
        "Ġd",
        "aily"
      ],
      [
        "d",
        "om"
      ],
      [
        "Ġp",
        "ublic"
      ],
      [
        "un",
        "d"
      ],
      [
        "f",
        "ree"
      ],
      [
        "Ġf",
        "inal"
      ],
      [
        "ce",
        "pt"
      ],
      [
        "ab",
        "ility"
      ],
      [
        "et",
        "h"
      ],
      [
        "a",
        "king"
      ],
      [
        "Ġo",
        "x"
      ],
      [
        "Ġcont",
        "act"
      ],
      [
        "Ġtr",
        "ain"
      ],
      [
        "ar",
        "r"
      ],
      [
        "Ġmo",
        "le"
      ],
      [
        "at",
        "o"
      ],
      [
        "Ġ",
        "vers"
      ],
      [
        "Ġs",
        "um"
      ],
      [
        "se",
        "lf"
      ],
      [
        "Ġe",
        "ither"
      ],
      [
        "ch",
        "n"
      ],
      [
        "f",
        "ort"
      ],
      [
        "ro",
        "id"
      ],
      [
        "Ġche",
        "m"
      ],
      [
        "Ġk",
        "id"
      ],
      [
        "Ġph",
        "ys"
      ],
      [
        "Ġt",
        "able"
      ],
      [
        "ol",
        "l"
      ],
      [
        "Ġgo",
        "vern"
      ],
      [
        "v",
        "iew"
      ],
      [
        "Ġde",
        "le"
      ],
      [
        "Ġsa",
        "ve"
      ],
      [
        "u",
        "red"
      ],
      [
        "s",
        "c"
      ],
      [
        "Ġg",
        "reen"
      ],
      [
        "at",
        "t"
      ],
      [
        "et",
        "er"
      ],
      [
        "Ġpre",
        "m"
      ],
      [
        "are",
        "d"
      ],
      [
        "Ġm",
        "ass"
      ],
      [
        "Ġreg",
        "ular"
      ],
      [
        "Ġe",
        "u"
      ],
      [
        "Ġallow",
        "ed"
      ],
      [
        "Ġb",
        "i"
      ],
      [
        "b",
        "y"
      ],
      [
        "Ġchr",
        "ist"
      ],
      [
        "olog",
        "y"
      ],
      [
        "Ġfollow",
        "ing"
      ],
      [
        "Ġm",
        "id"
      ],
      [
        "Ġform",
        "ula"
      ],
      [
        "9",
        "9"
      ],
      [
        "Ġexper",
        "ience"
      ],
      [
        "Ġf",
        "ib"
      ],
      [
        "Ġcit",
        "iz"
      ],
      [
        "o",
        "king"
      ],
      [
        "Ġchar",
        "acter"
      ],
      [
        "'",
        "ve"
      ],
      [
        "om",
        "ach"
      ],
      [
        "st",
        "er"
      ],
      [
        "Ġm",
        "ot"
      ],
      [
        "u",
        "it"
      ],
      [
        "o",
        "c"
      ],
      [
        "Ġsy",
        "n"
      ],
      [
        "Ġchick",
        "en"
      ],
      [
        "Ġperson",
        "al"
      ],
      [
        "Ġear",
        "n"
      ],
      [
        "Ġcust",
        "om"
      ],
      [
        "Ġha",
        "ving"
      ],
      [
        "a",
        "i"
      ],
      [
        "Ġpart",
        "ic"
      ],
      [
        "Ġequ",
        "als"
      ],
      [
        "Ġf",
        "ire"
      ],
      [
        "Ġres",
        "ults"
      ],
      [
        "Ġeng",
        "ine"
      ],
      [
        "Ġpo",
        "int"
      ],
      [
        "Ġapproxim",
        "ately"
      ],
      [
        "Ġhealth",
        "y"
      ],
      [
        "Ġf",
        "it"
      ],
      [
        "Ġpr",
        "ice"
      ],
      [
        "b",
        "all"
      ],
      [
        "og",
        "le"
      ],
      [
        "ail",
        "s"
      ],
      [
        "ent",
        "ial"
      ],
      [
        "Ġs",
        "ays"
      ],
      [
        "Ġlo",
        "ok"
      ],
      [
        "Ġex",
        "pect"
      ],
      [
        ".\"",
        ","
      ],
      [
        "Ġc",
        "e"
      ],
      [
        "Ġt",
        "ick"
      ],
      [
        "Ġbal",
        "ance"
      ],
      [
        "Ġm",
        "iss"
      ],
      [
        "Ġp",
        "c"
      ],
      [
        "Ġmin",
        "im"
      ],
      [
        "ac",
        "he"
      ],
      [
        "Ġre",
        "new"
      ],
      [
        "Ġ",
        "ident"
      ],
      [
        "Ġc",
        "ity"
      ],
      [
        "act",
        "ions"
      ],
      [
        "t",
        "op"
      ],
      [
        "Ġcont",
        "in"
      ],
      [
        "Ġrel",
        "ated"
      ],
      [
        "Ġnet",
        "work"
      ],
      [
        "Ġelect",
        "r"
      ],
      [
        "Ġst",
        "ore"
      ],
      [
        "1",
        "5"
      ],
      [
        "Ġc",
        "orn"
      ],
      [
        "Ġs",
        "od"
      ],
      [
        "Ġdrin",
        "king"
      ],
      [
        "Ġchan",
        "ges"
      ],
      [
        "Ġis",
        "s"
      ],
      [
        "um",
        "b"
      ],
      [
        "Ġi",
        "p"
      ],
      [
        "Ġmeas",
        "ure"
      ],
      [
        "es",
        "e"
      ],
      [
        "Ġincre",
        "ase"
      ],
      [
        "ro",
        "gen"
      ],
      [
        "Ġhum",
        "an"
      ],
      [
        "Ġmo",
        "bile"
      ],
      [
        "Ġact",
        "iv"
      ],
      [
        "n",
        "el"
      ],
      [
        "Ġ6",
        "0"
      ],
      [
        "Ġs",
        "it"
      ],
      [
        "ur",
        "ance"
      ],
      [
        "Ġrece",
        "ive"
      ],
      [
        "c",
        "hes"
      ],
      [
        "Ġe",
        "t"
      ],
      [
        "Ġaust",
        "ral"
      ],
      [
        "ig",
        "er"
      ],
      [
        "ific",
        "ation"
      ],
      [
        "Ġd",
        "id"
      ],
      [
        "Ġta",
        "king"
      ],
      [
        "ent",
        "ly"
      ],
      [
        "Ġp",
        "en"
      ],
      [
        "8",
        "0"
      ],
      [
        "e",
        "red"
      ],
      [
        "Ġ",
        "+"
      ],
      [
        "er",
        "v"
      ],
      [
        "Ġbu",
        "ild"
      ],
      [
        "o",
        "o"
      ],
      [
        "Ġv",
        "ac"
      ],
      [
        "Ġchild",
        "ren"
      ],
      [
        "Ġyout",
        "ube"
      ],
      [
        "Ġf",
        "re"
      ],
      [
        "Ġ201",
        "8"
      ],
      [
        "eng",
        "th"
      ],
      [
        "Ġre",
        "se"
      ],
      [
        "Ġqu",
        "est"
      ],
      [
        "co",
        "hol"
      ],
      [
        "Ġm",
        "ater"
      ],
      [
        "st",
        "ep"
      ],
      [
        "Ġr",
        "ad"
      ],
      [
        "Ġc",
        "ir"
      ],
      [
        "Ġsu",
        "re"
      ],
      [
        "Ġl",
        "a"
      ],
      [
        "Ġg",
        "as"
      ],
      [
        "Ġaw",
        "ay"
      ],
      [
        "Ġma",
        "king"
      ],
      [
        "Ġc",
        "at"
      ],
      [
        "it",
        "is"
      ],
      [
        "Ġst",
        "ep"
      ],
      [
        "Ġdi",
        "et"
      ],
      [
        "Ġst",
        "omach"
      ],
      [
        "as",
        "ter"
      ],
      [
        "Ġb",
        "ill"
      ],
      [
        "Ġit",
        "em"
      ],
      [
        "i",
        "ot"
      ],
      [
        "Ġmus",
        "ic"
      ],
      [
        "Ġic",
        "on"
      ],
      [
        "Ġar",
        "t"
      ],
      [
        "Ġb",
        "orn"
      ],
      [
        "Ġimport",
        "ant"
      ],
      [
        "Ġma",
        "kes"
      ],
      [
        "Ġmic",
        "ro"
      ],
      [
        "Ġma",
        "il"
      ],
      [
        "p",
        "ar"
      ],
      [
        "it",
        "ions"
      ],
      [
        "Ġl",
        "ot"
      ],
      [
        "Ġte",
        "chn"
      ],
      [
        "Ġg",
        "e"
      ],
      [
        "Ġnatur",
        "al"
      ],
      [
        "Ġgo",
        "ogle"
      ],
      [
        "av",
        "es"
      ],
      [
        "Ġun",
        "ivers"
      ],
      [
        "Ġim",
        "p"
      ],
      [
        "Ġf",
        "all"
      ],
      [
        "so",
        "ci"
      ],
      [
        "Ġo",
        "k"
      ],
      [
        "Ġtreat",
        "ment"
      ],
      [
        "Ġp",
        "ounds"
      ],
      [
        "es",
        "ts"
      ],
      [
        "os",
        "ed"
      ],
      [
        "Ġ1",
        "7"
      ],
      [
        "le",
        "x"
      ],
      [
        "Ġb",
        "ow"
      ],
      [
        "Ġbe",
        "gin"
      ],
      [
        "ol",
        "es"
      ],
      [
        "Ġclo",
        "s"
      ],
      [
        "end",
        "er"
      ],
      [
        "Ġd",
        "om"
      ],
      [
        "Ġj",
        "e"
      ],
      [
        "Ġpl",
        "ant"
      ],
      [
        "Ġdoes",
        "n"
      ],
      [
        "y",
        "es"
      ],
      [
        "b",
        "l"
      ],
      [
        "os",
        "p"
      ],
      [
        "Ġt",
        "re"
      ],
      [
        "Ġm",
        "g"
      ],
      [
        "Ġvit",
        "amin"
      ],
      [
        "Ġcanad",
        "a"
      ],
      [
        "Ġal",
        "cohol"
      ],
      [
        "Ġc",
        "ase"
      ],
      [
        "qu",
        "e"
      ],
      [
        "Ġcle",
        "an"
      ],
      [
        "us",
        "h"
      ],
      [
        "il",
        "le"
      ],
      [
        "n",
        "t"
      ],
      [
        "tr",
        "act"
      ],
      [
        "Ġloc",
        "ated"
      ],
      [
        "Ġmo",
        "v"
      ],
      [
        "Ġcost",
        "s"
      ],
      [
        "iv",
        "id"
      ],
      [
        "h",
        "yd"
      ],
      [
        "Ġse",
        "ver"
      ],
      [
        "Ġcle",
        "ar"
      ],
      [
        "Ġstr",
        "ong"
      ],
      [
        "Ġcalcul",
        "ate"
      ],
      [
        "s",
        "p"
      ],
      [
        "Ġg",
        "iven"
      ],
      [
        "Ġc",
        "ats"
      ],
      [
        "Ġbl",
        "u"
      ],
      [
        "o",
        "ve"
      ],
      [
        "Ġso",
        "ft"
      ],
      [
        "Ġsomet",
        "hing"
      ],
      [
        "Ġdo",
        "cum"
      ],
      [
        "Ġse",
        "x"
      ],
      [
        "Ġlike",
        "ly"
      ],
      [
        "Ġbre",
        "ak"
      ],
      [
        "Ġdeg",
        "ree"
      ],
      [
        "id",
        "ay"
      ],
      [
        "Ġrepl",
        "ace"
      ],
      [
        "Ġp",
        "air"
      ],
      [
        "Ġde",
        "l"
      ],
      [
        "Ġcond",
        "ition"
      ],
      [
        "iz",
        "z"
      ],
      [
        "Ġst",
        "ay"
      ],
      [
        "1",
        "8"
      ],
      [
        "Ġed",
        "it"
      ],
      [
        "ke",
        "mon"
      ],
      [
        "Ġas",
        "soci"
      ],
      [
        "Ġper",
        "form"
      ],
      [
        "c",
        "al"
      ],
      [
        "ap",
        "er"
      ],
      [
        "Ġqu",
        "ick"
      ],
      [
        "Ġd",
        "ark"
      ],
      [
        "Ġspe",
        "cial"
      ],
      [
        "Ġins",
        "urance"
      ],
      [
        "Ġre",
        "port"
      ],
      [
        "Ġcert",
        "ain"
      ],
      [
        "m",
        "y"
      ],
      [
        "Ġsa",
        "id"
      ],
      [
        "Ġtr",
        "ad"
      ],
      [
        "Ġco",
        "py"
      ],
      [
        "Ġen",
        "ough"
      ],
      [
        "4",
        "0"
      ],
      [
        "Ġcom",
        "es"
      ],
      [
        "Ġdr",
        "iver"
      ],
      [
        "cr",
        "ipt"
      ],
      [
        "Ġt",
        "it"
      ],
      [
        "Ġsp",
        "r"
      ],
      [
        "Ġte",
        "xt"
      ],
      [
        "Ġre",
        "ason"
      ],
      [
        "Ġle",
        "ar"
      ],
      [
        "Ġgovern",
        "ment"
      ],
      [
        "Ġmater",
        "ial"
      ],
      [
        "Ġde",
        "ad"
      ],
      [
        "Ġstre",
        "am"
      ],
      [
        "Ġcon",
        "st"
      ],
      [
        "iz",
        "ation"
      ],
      [
        "Ġmarri",
        "ed"
      ],
      [
        "g",
        "al"
      ],
      [
        "id",
        "ed"
      ],
      [
        "if",
        "t"
      ],
      [
        "Ġsup",
        "er"
      ],
      [
        "b",
        "on"
      ],
      [
        "ab",
        "et"
      ],
      [
        "th",
        "ing"
      ],
      [
        "l",
        "or"
      ],
      [
        "d",
        "r"
      ],
      [
        "Ġlo",
        "ve"
      ],
      [
        "Ġpar",
        "ts"
      ],
      [
        "Ġqual",
        "ity"
      ],
      [
        "li",
        "ke"
      ],
      [
        "t",
        "a"
      ],
      [
        "Ġth",
        "ings"
      ],
      [
        ".",
        "âĢĿ"
      ],
      [
        "Ġact",
        "ually"
      ],
      [
        "Ġcol",
        "d"
      ],
      [
        "Ġst",
        "at"
      ],
      [
        "Ġcount",
        "ries"
      ],
      [
        "cr",
        "ib"
      ],
      [
        "Ġb",
        "ag"
      ],
      [
        "Ġmem",
        "bers"
      ],
      [
        "Ġphot",
        "o"
      ],
      [
        "Ġab",
        "s"
      ],
      [
        "Ġbott",
        "om"
      ],
      [
        "a",
        "im"
      ],
      [
        "Ġminim",
        "um"
      ],
      [
        "Ġth",
        "ir"
      ],
      [
        "Ġspec",
        "ific"
      ],
      [
        "Ġbe",
        "low"
      ],
      [
        "Ġto",
        "day"
      ],
      [
        "Ġlangu",
        "age"
      ],
      [
        "Ġapplic",
        "ation"
      ],
      [
        "in",
        "ed"
      ],
      [
        "Ġsever",
        "al"
      ],
      [
        "Ġinst",
        "all"
      ],
      [
        "Ġis",
        "n"
      ],
      [
        "Ġne",
        "ar"
      ],
      [
        "Ġsomet",
        "imes"
      ],
      [
        "Ġo",
        "z"
      ],
      [
        "at",
        "ures"
      ],
      [
        "j",
        "o"
      ],
      [
        "Ġtab",
        "les"
      ],
      [
        "Ġl",
        "at"
      ],
      [
        "Ġh",
        "im"
      ],
      [
        "Ġg",
        "ain"
      ],
      [
        "Ġl",
        "ength"
      ],
      [
        "Ġdo",
        "ctor"
      ],
      [
        "iv",
        "ed"
      ],
      [
        "Ġ",
        "er"
      ],
      [
        "Ġmil",
        "es"
      ],
      [
        "in",
        "o"
      ],
      [
        "Ġfri",
        "ends"
      ],
      [
        "Ġmed",
        "ical"
      ],
      [
        "Ġj",
        "an"
      ],
      [
        "Ġmark",
        "et"
      ],
      [
        "os",
        "is"
      ],
      [
        "Ġs",
        "end"
      ],
      [
        "Ġcaus",
        "es"
      ],
      [
        "Ġ",
        "ide"
      ],
      [
        "5",
        "00"
      ],
      [
        "ci",
        "ally"
      ],
      [
        "wh",
        "ich"
      ],
      [
        "Ġg",
        "re"
      ],
      [
        "Ġ9",
        "0"
      ],
      [
        "Ġb",
        "acter"
      ],
      [
        "Ġde",
        "li"
      ],
      [
        "Ġbre",
        "ast"
      ],
      [
        "Ġflu",
        "id"
      ],
      [
        "Ġne",
        "ver"
      ],
      [
        "uf",
        "act"
      ],
      [
        "o",
        "ver"
      ],
      [
        "Ġc",
        "ode"
      ],
      [
        "il",
        "ar"
      ],
      [
        "Ġf",
        "ar"
      ],
      [
        "Ġrel",
        "ations"
      ],
      [
        "Ġab",
        "ove"
      ],
      [
        "Ġloc",
        "al"
      ],
      [
        "Ġob",
        "ject"
      ],
      [
        "Ġg",
        "ir"
      ],
      [
        "Ġvehic",
        "le"
      ],
      [
        "c",
        "us"
      ],
      [
        "Ġp",
        "ict"
      ],
      [
        "w",
        "are"
      ],
      [
        "Ġcan",
        "cer"
      ],
      [
        "Ġwor",
        "king"
      ],
      [
        "Ġman",
        "age"
      ],
      [
        "Ġorig",
        "inal"
      ],
      [
        "Ġ2",
        "3"
      ],
      [
        "Ġgo",
        "ing"
      ],
      [
        "Ġpo",
        "kemon"
      ],
      [
        "he",
        "ad"
      ],
      [
        "Ġpr",
        "im"
      ],
      [
        "Ġsal",
        "t"
      ],
      [
        "Ġf",
        "em"
      ],
      [
        "Ġw",
        "ide"
      ],
      [
        "Ġdis",
        "ney"
      ],
      [
        "Ġc",
        "ub"
      ],
      [
        "Ġval",
        "id"
      ],
      [
        "Ġbl",
        "ue"
      ],
      [
        "y",
        "le"
      ],
      [
        "Ġget",
        "ting"
      ],
      [
        "Ġind",
        "ivid"
      ],
      [
        "Ġb",
        "ase"
      ],
      [
        "Ġbr",
        "own"
      ],
      [
        "Ġwho",
        "le"
      ],
      [
        "Ġm",
        "ix"
      ],
      [
        "Ġp",
        "ound"
      ],
      [
        "Ġoff",
        "ice"
      ],
      [
        "on",
        "t"
      ],
      [
        "al",
        "y"
      ],
      [
        "Ġman",
        "ufact"
      ],
      [
        "Ġfed",
        "eral"
      ],
      [
        "t",
        "ime"
      ],
      [
        "po",
        "ons"
      ],
      [
        "Ġblock",
        "ed"
      ],
      [
        "Ġcurrent",
        "ly"
      ],
      [
        "Ġeg",
        "g"
      ],
      [
        "Ġl",
        "ink"
      ],
      [
        "l",
        "ing"
      ],
      [
        "Ġc",
        "ut"
      ],
      [
        "Ġad",
        "v"
      ],
      [
        "Ġe",
        "ye"
      ],
      [
        "Ġam",
        "az"
      ],
      [
        "Ġproble",
        "ms"
      ],
      [
        "Ġde",
        "vices"
      ],
      [
        "Ġy",
        "e"
      ],
      [
        "m",
        "as"
      ],
      [
        "Ġ8",
        "0"
      ],
      [
        "Ġte",
        "ll"
      ],
      [
        "n",
        "ed"
      ],
      [
        "Ġd",
        "one"
      ],
      [
        "l",
        "er"
      ],
      [
        "ur",
        "y"
      ],
      [
        "Ġ",
        "ut"
      ],
      [
        "Ġpur",
        "ch"
      ],
      [
        "Ġf",
        "ish"
      ],
      [
        "Ġtr",
        "y"
      ],
      [
        "ra",
        "w"
      ],
      [
        "Ġe",
        "ating"
      ],
      [
        "h",
        "y"
      ],
      [
        "eto",
        "oth"
      ],
      [
        "Ġw",
        "r"
      ],
      [
        "Ġnor",
        "th"
      ],
      [
        "m",
        "a"
      ],
      [
        "1",
        "00"
      ],
      [
        "Ġact",
        "ive"
      ],
      [
        "f",
        "or"
      ],
      [
        "p",
        "or"
      ],
      [
        "Ġc",
        "am"
      ],
      [
        "1",
        "1"
      ],
      [
        "Ġa",
        "p"
      ],
      [
        "Ġble",
        "eding"
      ],
      [
        "Ġsim",
        "ilar"
      ],
      [
        "Ġl",
        "ater"
      ],
      [
        "em",
        "ber"
      ],
      [
        "Ġsh",
        "are"
      ],
      [
        "ur",
        "s"
      ],
      [
        "Ġg",
        "old"
      ],
      [
        "Ġl",
        "and"
      ],
      [
        "Ġcan",
        "not"
      ],
      [
        "Ġser",
        "vices"
      ],
      [
        "i",
        "ally"
      ],
      [
        "Ġcomm",
        "un"
      ],
      [
        "ab",
        "ly"
      ],
      [
        "m",
        "m"
      ],
      [
        "Ġup",
        "d"
      ],
      [
        "Ġde",
        "b"
      ],
      [
        "ie",
        "ve"
      ],
      [
        "Ġexce",
        "l"
      ],
      [
        "Ġin",
        "g"
      ],
      [
        "w",
        "ard"
      ],
      [
        "Ġrep",
        "res"
      ],
      [
        "Ġequ",
        "ival"
      ],
      [
        "Ġblu",
        "etooth"
      ],
      [
        "ause",
        "a"
      ],
      [
        "Ġind",
        "ia"
      ],
      [
        "Ġp",
        "aid"
      ],
      [
        "Ġfact",
        "or"
      ],
      [
        "w",
        "ay"
      ],
      [
        "Ġchan",
        "nel"
      ],
      [
        "g",
        "ing"
      ],
      [
        "b",
        "a"
      ],
      [
        "Ġeas",
        "y"
      ],
      [
        "Ġopt",
        "ions"
      ],
      [
        "ol",
        "s"
      ],
      [
        "Ġpres",
        "ident"
      ],
      [
        "Ġqu",
        "e"
      ],
      [
        "Ġconver",
        "t"
      ],
      [
        "v",
        "ir"
      ],
      [
        "Ġ2",
        "2"
      ],
      [
        "Ġm",
        "al"
      ],
      [
        "Ġth",
        "ing"
      ],
      [
        "m",
        "er"
      ],
      [
        "Ġcook",
        "ed"
      ],
      [
        "Ġcert",
        "ific"
      ],
      [
        "Ġear",
        "th"
      ],
      [
        "un",
        "es"
      ],
      [
        "Ġsimp",
        "ly"
      ],
      [
        "1",
        "9"
      ],
      [
        "le",
        "y"
      ],
      [
        "Ġeg",
        "gs"
      ],
      [
        "Ġin",
        "fl"
      ],
      [
        "f",
        "ace"
      ],
      [
        "l",
        "oud"
      ],
      [
        "Ġchem",
        "ical"
      ],
      [
        "Ġwh",
        "y"
      ],
      [
        "Ġpre",
        "vent"
      ],
      [
        "o",
        "ks"
      ],
      [
        "lo",
        "ck"
      ],
      [
        "c",
        "a"
      ],
      [
        "Ġal",
        "ong"
      ],
      [
        "i",
        "en"
      ],
      [
        "Ġf",
        "ore"
      ],
      [
        "ell",
        "ow"
      ],
      [
        "Ġpr",
        "iv"
      ],
      [
        "f",
        "r"
      ],
      [
        "y",
        "n"
      ],
      [
        "Ġes",
        "pe"
      ],
      [
        "Ġfe",
        "e"
      ],
      [
        "Ġr",
        "a"
      ],
      [
        "ac",
        "es"
      ],
      [
        "mo",
        "st"
      ],
      [
        "Â",
        "®"
      ],
      [
        "Ġli",
        "qu"
      ],
      [
        "ro",
        "ll"
      ],
      [
        "Ġbatter",
        "y"
      ],
      [
        "Ġd",
        "oll"
      ],
      [
        "Ġcons",
        "um"
      ],
      [
        "Ġdi",
        "abet"
      ],
      [
        "h",
        "o"
      ],
      [
        "Ġwor",
        "ks"
      ],
      [
        "Ġfood",
        "s"
      ],
      [
        "Ġcaus",
        "ed"
      ],
      [
        "u",
        "x"
      ],
      [
        "Ġtr",
        "ue"
      ],
      [
        "Ġs",
        "ound"
      ],
      [
        "ou",
        "ble"
      ],
      [
        "t",
        "es"
      ],
      [
        "Ġpop",
        "ular"
      ],
      [
        "Ġ",
        "ess"
      ],
      [
        "s",
        "a"
      ],
      [
        "Ġcitiz",
        "ens"
      ],
      [
        "Ġfe",
        "ed"
      ],
      [
        "Ġcl",
        "aim"
      ],
      [
        "Ġorig",
        "in"
      ],
      [
        "Ġpr",
        "om"
      ],
      [
        "Ġeffect",
        "ive"
      ],
      [
        "Ġic",
        "loud"
      ],
      [
        "ie",
        "f"
      ],
      [
        "ab",
        "les"
      ],
      [
        "Ġst",
        "ory"
      ],
      [
        "Ġsm",
        "art"
      ],
      [
        "Ġs",
        "ens"
      ],
      [
        "Ġoff",
        "er"
      ],
      [
        "Ġwe",
        "ar"
      ],
      [
        "v",
        "al"
      ],
      [
        "Ġe",
        "yes"
      ],
      [
        "Ġwrit",
        "ten"
      ],
      [
[...]
